<PAD>	1000000000
<UNK>	1000000000
<S>	1000000000
</S>	1000000000
.	114645
ein	73168
einem	52883
mit	48977
auf	45829
in	42707
eine	38783
mann	36538
und	35535
einer	33776
der	27163
,	23673
frau	22059
die	21316
an	17890
im	17729
zwei	17707
einen	16044
vor	15236
steht	12345
dem	11618
junge	11073
sitzt	9473
den	8681
stehen	8365
männer	8260
sich	8140
mädchen	7805
am	7564
hund	7422
menschen	7304
sitzen	6825
über	6461
straße	5971
personen	5625
frauen	5340
kind	5215
hält	4869
kinder	4845
neben	4632
hand	4630
das	4524
von	4449
spielt	4386
springt	4267
drei	4266
spielen	4219
beim	4112
wasser	4028
durch	3937
wiese	3930
bei	3835
mehrere	3729
zu	3675
leute	3439
fährt	3412
läuft	3398
weißen	3362
roten	3329
aus	3321
shirt	3238
eines	3211
tisch	3122
geht	3104
ball	2943
entlang	2869
person	2838
etwas	2815
kleines	2804
gehen	2673
blauen	2672
gruppe	2560
hinter	2479
strand	2419
schwarzen	2409
hat	2406
boden	2405
einige	2380
kleiner	2354
seinem	2353
während	2349
2	2277
schaut	2236
laufen	2210
bühne	2125
trägt	2089
um	2057
hunde	2025
schwarzer	2025
ist	2012
luft	1976
großen	1975
jungen	1973
kleinen	1964
ge@@	1963
kamera	1945
viele	1944
platz	1943
schnee	1934
liegt	1900
fahrrad	1894
kleidung	1888
jacke	1810
macht	1744
paar	1725
grünen	1680
helm	1678
gelben	1660
hemd	1632
vorbei	1579
er	1566
kleine	1549
kleid	1527
kopf	1519
junger	1504
weißem	1501
sind	1500
gitarre	1498
be@@	1485
vier	1480
hut	1471
unter	1466
nach	1465
anderen	1435
hose	1434
gehweg	1420
wand	1386
weg	1383
weißer	1374
fahren	1363
rotem	1330
arm	1325
gebäude	1316
ver@@	1292
bank	1281
mütze	1281
ten	1264
wird	1253
er@@	1253
strasse	1232
brille	1219
zusammen	1208
hoch	1207
mauer	1206
ihren	1175
arbeiter	1171
k@@	1162
rennt	1157
schauen	1146
auto	1142
essen	1136
raum	1133
ihm	1130
händen	1130
freien	1098
sch@@	1090
roter	1082
sonnenbrille	1070
te	1067
meer	1065
haaren	1056
blauem	1054
t@@	1046
ihr	1041
t-shirt	1028
zwischen	1024
es	1015
blauer	1015
-@@	1013
haus	1004
wald	1000
mikrofon	992
kappe	988
park	988
anzug	987
hintergrund	984
boot	977
gerade	973
holz@@	967
an@@	964
andere	963
brauner	962
rasen	961
en@@	954
en	948
stadt	944
nebeneinander	935
braunen	924
treppe	917
rennen	914
baby	910
sieht	908
pferd	905
unterhalten	898
schwarzem	897
band	886
arbeiten	885
s@@	881
gen	875
zeigt	868
stuhl	862
3	857
t	855
sand	848
skateboard	835
tanzen	831
seinen	825
klettert	820
ältere	820
ins	818
stand	817
des	813
bunten	813
rosa	802
wagen	792
ihrem	791
dame	789
halten	787
baum	786
arbeitet	781
wirft	779
machen	772
halle	761
sie	758
d@@	758
blonde	757
liest	751
ein@@	750
auf@@	750
feld	747
singt	747
langen	745
maul	732
geländer	714
felsen	714
springen	713
n@@	709
grauen	707
bild	704
haben	698
seiner	696
man	685
ihre	685
e	685
ch@@	684
schläft	681
chen	677
älterer	675
m@@	668
bahn	666
sein	666
dabei	664
ter	661
schwarze	652
z@@	649
g@@	648
ab@@	648
e@@	643
seine	643
rad	641
spieler	640
geschäft	640
rücken	639
mund	638
f@@	631
ung	626
liegen	625
em	622
sehen	621
für	621
sprung	620
zieht	618
de	617
spiel	615
vielen	615
trikot	614
gewässer	614
fotografiert	611
schen	611
ge	610
küche	609
fünf	607
schwarz	604
fenster	603
als	601
versucht	599
gras	598
rucksack	598
garten	597
fußball	597
autos	597
asiatische	597
b@@	595
alte	593
gesicht	591
buch	590
motorrad	585
kindern	585
jungs	584
fest	579
kämpfen	577
i@@	577
tasche	575
stock	571
zum	571
dach	567
straßen@@	566
brücke	564
große	560
ern	559
handy	559
ihnen	558
wasser@@	558
armen	557
hängt	553
publikum	552
oberteil	550
see	547
/	547
pullover	546
fluss	545
über@@	541
aus@@	539
musiker	536
welle	535
herum	534
oberkörper	532
a@@	532
u@@	530
n	530
stein@@	529
tanzt	522
zaun	522
bauarbeiter	521
radfahrer	518
oben	518
l@@	514
weiße	513
kniet	513
eren	512
her	512
seil	511
höhe	510
malt	505
weiß	505
schiebt	501
sche	496
decke	495
tragen	493
daneben	492
ab	492
rock	488
unter@@	486
re@@	485
um@@	484
lehnt	480
berg	479
reitet	479
laden	479
end	476
zug	475
schild	474
telefoniert	472
bus	466
de@@	466
hinunter	464
miteinander	464
spiel@@	462
zu@@	460
s	460
stühlen	456
schaukel	454
in@@	452
uniform	450
plastik@@	450
warten	449
pool	448
kleinkind	447
alter	445
h@@	442
le@@	442
schlägt	442
alten	441
ra@@	439
ert	438
o@@	437
ro@@	435
surfer	435
orangen	432
-	431
un@@	431
kostüm	430
nen	430
ufer	430
grünem	429
fahrer	429
jeans	429
g	428
sen	426
p@@	426
bart	425
mantel	423
hände	422
arbeit	420
menschenmenge	420
st@@	418
tischen	417
bürgersteig	417
tem	415
gelber	414
baseballspieler	414
vor@@	412
stein	411
helmen	410
befinden	409
hebt	409
dunkler	409
ihrer	408
isst	407
lila	404
al@@	404
spielfeld	404
zuschauern	404
maschine	402
m	399
jugendliche	398
vom	396
gerüst	394
schnee@@	394
spielzeug	393
el@@	393
führt	392
ä@@	391
lacht	387
ger	387
di@@	387
&quot;	387
kopftuch	386
gekleidet	386
tes	385
bett	385
rot	384
korb	383
voller	383
la@@	382
enden	382
blau	382
schneidet	381
stück	378
sten	378
cht	378
schwimmt	377
dass	375
straßenrand	375
foto	374
sehr	373
sportler	371
l	371
eln	371
markt	371
werden	370
arme	370
wartet	369
hoch@@	368
passanten	367
ka@@	366
dunklen	365
we@@	364
fliegt	364
polizisten	363
rote	363
ei@@	362
ent@@	362
richtung	362
rand	361
zeitung	359
musik	359
grauer	359
ssen	358
lichen	358
grüner	358
lokal	358
alle	357
leuten	356
ck@@	354
sen@@	354
rampe	354
sitzend	353
sport@@	353
verkaufsstand	350
tor	349
streckt	349
shorts	348
baseball	347
bäumen	347
mensch	345
sk@@	345
fängt	344
eis	343
sp@@	343
ss@@	343
blickt	343
her@@	342
hockt	342
hinauf	341
großer	338
leine	337
kt	337
braune	337
nacktem	336
hauswand	336
hosen	335
stange	335
restaurant	334
brett	334
st	333
ben	333
sofa	332
baustelle	332
leiter	331
läufer	331
flasche	330
augen	330
reifen	330
wanderer	328
gekleidete	328
stadion	328
beobachtet	326
dunkelhäutige	326
becher	325
zimmer	325
skateboarder	324
se	323
beide	322
ar@@	322
trinkt	322
grill	321
dahinter	321
gemeinsam	321
ten@@	321
fangen	320
schirm	320
veranstaltung	320
lachend	319
spielplatz	319
ne	318
tür	318
sti@@	316
tuch	316
rutscht	315
ziehen	314
hand@@	314
oder	314
gt	313
spricht	313
4	311
motorradfahrer	310
ö@@	308
ku@@	307
glas	307
wobei	307
reiter	307
darauf	305
anderer	305
plakat	305
gelbem	304
weste	304
schläger	303
haare	303
bo@@	303
blumen	303
surfbrett	303
spazieren	301
kostümen	300
gerät	300
haar	300
mutter	299
lachen	298
jemand	298
sch	297
mi@@	297
ü@@	296
scher	296
regenschirm	295
gel@@	295
si@@	294
skifahrer	294
ange@@	294
herunter	294
kinder@@	294
schulter	293
ti@@	293
footballspieler	293
junges	292
basketball	292
beiden	291
ste@@	291
o	291
schürze	291
trikots	291
gasse	291
bunt	291
a	290
weitere	290
ende	289
metall@@	288
zelt	288
bau@@	287
scheibe	287
hohen	286
kurzen	286
i	286
steg	285
ri@@	285
gen@@	285
elt	285
wa@@	283
zigarette	283
hindernis	283
pf@@	280
ne@@	280
sta@@	279
fußballspieler	279
blondes	279
ger@@	278
davor	277
it@@	277
felswand	276
ko@@	276
holz	275
weißes	275
männern	275
ft	273
hinten	273
au@@	272
jean	272
couch	271
r@@	270
snowboarder	270
asiatischer	269
te@@	267
blaue	267
wie	267
bar	267
cht@@	266
ß@@	265
cken	265
beton@@	265
blonden	265
teller	264
sand@@	264
fläche	264
geh@@	264
kommt	264
ta@@	263
lauf	263
1	262
betrachtet	261
netz	261
se@@	261
grauem	261
zebrastreifen	261
reihe	261
na@@	260
landschaft	260
verkauft	260
lässt	260
pärchen	259
eis@@	259
badehose	258
pferden	258
klettern	258
fahrradfahrer	257
ma@@	257
zuschauer	257
ss	257
bunter	257
lo@@	257
legt	256
putzt	255
rei@@	255
dress	255
sessel	255
tafel	254
soldaten	254
schreibt	253
fa@@	252
blick	252
der@@	251
gegenüber	251
posiert	251
eingang	251
li@@	250
fußball@@	250
blumen@@	249
grüne	249
kurve	249
kinderwagen	248
asiatischen	248
board	248
rutsche	248
on@@	247
voll	246
r	246
vordergrund	245
kleidern	245
trinken	245
verkleidet	245
einigen	245
beinen	245
schiff	244
ckt	244
outfit	244
hunden	243
sitz	243
gehsteig	243
nacht	243
rechten	242
parkbank	242
bikini	241
schaufenster	241
heller	241
ski@@	240
pa@@	240
laptop	240
bluse	240
frisbee	239
football	239
theke	239
fahr@@	239
shirts	239
ere	238
men@@	238
u	238
gelände	238
bu@@	238
eimer	237
ch	237
gestreiften	237
nachts	236
berg@@	236
bekleidung	236
blonder	235
at@@	235
ck	235
bein	235
rotes	235
dunkel@@	235
sonne	234
bahnsteig	234
flagge	233
fußgängerzone	233
mehreren	233
posieren	233
lächelt	232
umarmt	232
brunnen	231
dre@@	231
handschuhen	229
befindet	229
davon	228
ler	228
lich	227
hintereinander	227
unterwegs	227
rot-@@	227
auch	226
surft	226
beobachten	225
ihn	225
braunem	225
hinter@@	224
gibt	224
top	224
hang	223
d	223
polizist	222
hinterher	222
art	222
skulptur	222
zen	222
scha@@	221
mannes	220
gesch@@	220
strassen@@	220
wei@@	220
reiten	220
regen	220
damen	219
saal	219
be	219
weiß-@@	219
durchs	218
schaufel	217
fä@@	217
renn@@	217
führen	216
zur	216
holt	216
ken	216
dunkelhaarige	216
aufge@@	215
gewand	215
flugzeug	214
sse	214
zer@@	214
ke@@	214
tra@@	214
anzügen	214
gemüse	214
erwachsene	214
vogel	213
hügel	213
stehend	213
short	213
gel	212
familie	212
konzert	212
repariert	211
ges	211
papier	210
loch	210
schwimm@@	210
schüssel	210
geige	210
kirche	209
schlagzeug	209
besen	209
hellen	208
figur	207
unterhält	206
pu@@	206
küsst	206
schal	206
vorne	206
tet	205
großes	205
sa@@	205
bekleidet	204
war@@	204
bahn@@	203
ter@@	203
bunte	203
gegenstand	203
tanz@@	203
ner	202
schlitten	202
he@@	202
baseball@@	202
fahrzeug	201
sh@@	201
sack	201
spiegel	201
bade@@	201
än@@	201
verschneiten	200
le	200
basketballspieler	200
öffentlichen	200
ender	199
me@@	199
greift	199
werfen	199
einkaufswagen	198
überqueren	198
schuhe	198
bereitet	198
ring	198
brautpaar	197
steinen	197
verkäufer	197
pulli	197
seite	196
schultern	196
sänger	195
stra@@	195
schw@@	195
licher	195
maske	195
schutz@@	195
ß	194
to@@	194
il@@	194
mit@@	193
überquert	193
musizieren	193
et	193
roll@@	193
u-bahn	192
luftballons	192
häusern	192
strecke	192
fel@@	191
nur	191
mannschaften	191
grossen	190
hängen	190
men	190
fisch	190
bi@@	190
farbiger	190
schi@@	189
liche	189
dern	188
ke	188
v@@	188
offenen	188
kreis	187
verkleidete	187
gelbe	187
pinken	187
ga@@	186
tritt	186
erin	186
ha@@	186
katze	185
snowboard	185
pi@@	185
mu@@	185
ho@@	184
schneebedeckten	184
z	184
gekleideter	184
afrikanische	184
gegen	184
zettel	184
einander	184
hellem	184
roller	183
fahrrädern	183
schwimmen	183
wo	183
springbrunnen	183
teppich	183
fotografieren	182
singen	182
balanciert	182
umarmen	182
fahne	181
bagger	181
himmel	181
raucht	181
park@@	181
che	180
eishockeyspieler	180
flaschen	180
piste	180
gra@@	179
beleuchteten	179
mo@@	179
chten	179
bü@@	179
tz@@	178
schlag	178
iert	178
fluß	178
handtasche	178
hals	178
bier	177
ball@@	177
bar@@	177
noch	177
schoß	177
kuckt	176
fen	176
hüten	176
sitz@@	175
steigen	175
kan@@	175
pp@@	175
schuhen	175
blau-@@	175
sechs	174
ppe	174
hinab	174
back@@	174
sitzenden	174
bub	174
laub	174
ur@@	173
vater	173
lei@@	173
spritzt	173
farbige	173
erde	173
hammer	172
inmitten	172
chen@@	172
buntem	172
lesen	172
mikroskop	172
lächelnd	171
klein@@	171
blaues	170
weissen	170
betrachten	169
steigt	169
schwarz-@@	169
sonnenuntergang	169
hof	169
bel@@	169
oranger	169
zunge	169
braun	169
statue	168
tennisball	168
szene	168
bemalten	168
hocker	168
schwingt	167
ste	167
runter	167
ampel	167
koffer	167
teil	166
computer	166
cher	166
fleisch	166
menge	166
runden	166
hauses	166
linken	166
absperrung	166
voll@@	166
sweater	166
spielzeug@@	165
pause	165
schn@@	165
fuß	165
denen	165
lt	165
ster@@	165
säule	165
regen@@	164
ungs@@	164
feuer	164
j@@	164
baumstamm	164
hell@@	164
kon@@	164
ber@@	163
ba@@	163
gitter	163
tanz	163
warnweste	163
braut	163
leeren	163
ru@@	163
kuchen	162
krawatte	162
nimmt	162
mm@@	162
kar@@	162
kopf@@	162
bahnhof	162
bei@@	162
fussball@@	162
obst	162
orangenen	162
gang	161
par@@	161
hu@@	161
garten@@	161
waldweg	161
rad@@	161
wurf	161
tzen	161
mitten	161
f	161
ßen	160
scht	160
fahrrad@@	160
tte	160
finger	160
seilen	160
ohr	160
seifenblasen	159
glas@@	159
beugt	159
schießt	159
nähe	159
matte	159
et@@	158
y@@	158
schmalen	158
da@@	158
pflanzen	158
taschen	158
hin@@	157
fri@@	157
sportdress	157
or@@	157
ungen	157
radrennfahrer	157
man@@	156
sandstrand	156
was	156
sst	156
bach	156
gewehr	156
kurzer	156
mikrophon	156
den@@	156
schwarzhaarige	156
rennstrecke	156
b	155
ppen	155
badeanzug	155
kampf	155
rollschuhen	155
belebten	155
tennisspielerin	155
ausge@@	155
liegenden	154
lauf@@	154
will	154
diverse	154
kugel	154
lö@@	153
asiaten	153
ren@@	153
pro@@	153
steckt	153
el	153
per@@	152
am@@	152
lkw	152
jongliert	152
aufschrift	152
ohne	152
parkplatz	152
w@@	152
ften	152
schen@@	152
cafe	151
tennisspieler	151
gezogen	151
kreuzung	150
is	150
instrument	150
kä@@	150
gegeneinander	150
schlauch	150
gelb	150
guckt	149
fussball	149
jacken	149
einge@@	149
k	149
steine	149
regal	149
tüte	149
ast	149
dunkelhäutiger	149
op@@	148
künstler	148
lu@@	148
karierten	148
kariertem	148
ung@@	147
gebirge	147
schau@@	147
tennis	147
knien	147
fü@@	147
igen	147
steinmauer	147
tri@@	146
kampf@@	146
bergen	146
erklärt	146
gebäudes	146
übungen	146
tisch@@	146
mannschaft	146
orangem	146
tieren	145
älteren	145
orange	145
unten	145
trampolin	145
ni@@	145
fest@@	145
schäferhund	145
kü@@	145
weissem	145
karren	144
salto	144
lan@@	144
warnwesten	144
stier	144
stre@@	143
jagt	143
bläst	143
beieinander	143
bauch	143
holzbank	143
mal@@	142
strohhut	142
bergsteiger	142
gelbes	142
schutzhelm	142
bilder	142
fe@@	142
asiate	142
5	141
feuer@@	141
tresen	141
zt	141
nicht	141
haufen	141
stützt	141
erinnen	141
fußballer	141
bal@@	140
lassen	140
party	140
schaukelt	140
bänken	140
schlafen	140
hen	140
volleyball	140
sachen	140
orchester	140
grün	140
riesigen	139
bt	139
redet	139
versuchen	139
hunde@@	139
anorak	139
ssi@@	139
stehenden	139
gestreiftem	139
ganz	139
arbeit@@	138
skater	138
kasten	138
rau@@	138
kette	138
wäsche	138
spiels	138
dunkel	137
ständen	137
bier@@	137
nummer	137
rechts	137
fla@@	137
tre@@	137
becken	137
lang@@	136
ir@@	136
viel	136
kittel	136
turn@@	136
balkon	135
hä@@	135
len	135
mö@@	135
gi@@	135
lachende	135
innen	134
eisen@@	134
geln	134
dose	134
lie@@	134
instrumenten	134
gelehnt	134
hellblauen	134
tro@@	133
land@@	133
motor@@	133
stufen	133
kunst@@	133
leu@@	133
ers	133
run@@	133
sonnenbrillen	133
ei	132
rasiert	132
links	132
heraus	132
win@@	132
ster	131
reinigt	131
schwimmbecken	131
schutzkleidung	131
haltestelle	131
so@@	131
durch@@	131
skiern	131
ßt	130
parade	130
baum@@	130
müll@@	130
flachen	130
dar@@	130
stöcken	130
wandern	129
sitzende	129
wi@@	129
kommen	129
ski	129
hr@@	129
sä@@	129
ern@@	129
schu@@	129
arbeitskleidung	129
versch@@	129
clown	128
handstand	128
trommel	128
fle@@	128
vorbei@@	128
werbe@@	128
blicken	128
rädern	128
stab	127
hüpft	127
tor@@	127
spe@@	127
waren	127
bällen	127
rodeo	127
luftballon	127
sonnenschirm	127
schie@@	127
mmt	127
supermarkt	127
kanu	126
är@@	126
ckten	126
weisser	126
stoff@@	125
graffiti	125
geschlossenen	125
abge@@	125
lä@@	125
ker	125
arena	125
schuh	125
and@@	125
anhänger	124
skateboardfahrer	124
wo@@	124
cowboyhut	124
sandigen	124
lau@@	124
chor	124
pe	124
mä@@	124
pfütze	123
onen	123
reparieren	123
tigen	123
trompete	123
kopfüber	123
beisammen	123
turm	123
gla@@	123
schreibtisch	123
graben	123
tt@@	123
schwarzes	123
dunklem	123
fahnen	123
basketball@@	123
chter	123
gelb-@@	123
fal@@	122
farbe	122
marktstand	122
beh@@	122
schatten	122
kl@@	122
iger	122
stü@@	122
ine	122
nassen	122
hafen	122
boxer	122
tan@@	122
rin@@	121
getränk	121
winter@@	121
streicht	121
kor@@	121
gem	121
fer@@	121
sportkleidung	121
on	121
bedient	121
steh@@	121
schiedsrichter	121
wohnzimmer	121
fällt	121
kuh	121
sel@@	120
auto@@	120
rolltreppe	120
puppe	120
cke	120
sportplatz	120
reden	120
setzt	120
teten	120
rugbyspieler	120
hän@@	119
joggt	119
bauen	119
block	119
plan@@	119
halsband	119
as	119
automaten	119
kun@@	119
len@@	119
hl@@	119
gewändern	119
packt	119
schla@@	119
torwart	118
kucken	118
freiem	118
wür@@	118
rö@@	118
schul@@	118
chtet	118
halb	118
soldat	118
terrasse	118
blatt	118
dach@@	118
enten	118
fassade	118
wettkampf	118
halb@@	117
uniformen	117
jugendlicher	117
zähne	117
beine	117
kla@@	117
läuferin	117
mat@@	117
kra@@	117
langem	117
nackten	116
flie@@	116
haus@@	116
pult	116
kissen	116
str@@	116
getränken	116
rück@@	116
gewässers	116
fen@@	116
mer@@	116
cowboy	116
fegt	115
star@@	115
baut	115
ll@@	115
asiatisches	115
vollen	115
beißt	115
sches	115
angel	115
asiatin	114
stu@@	114
musik@@	114
mitte	114
h	114
wander@@	114
hören	114
station	114
c@@	114
reicht	113
kocht	113
ker@@	113
tennis@@	113
sport	113
spie@@	113
hau@@	113
äu@@	113
tunnel	113
taucher	113
kn@@	113
wasserfall	113
du@@	113
tribüne	113
umgeben	113
fußweg	113
streifen	113
em@@	113
schüttelt	112
sonnen@@	112
nase	112
tauben	112
endes	112
lederjacke	112
vortrag	112
sohn	112
weiß@@	112
kopfhörern	112
leinwand	112
schwimmbrille	112
football@@	112
wellen	112
hü@@	112
bogen	111
e-gitarre	111
tu@@	111
fre@@	111
umge@@	111
gitarren	111
aufs	111
do@@	111
haltend	111
haar@@	111
ft@@	110
stellt	110
fenster@@	110
bereiten	110
zeigen	110
hilft	110
geschäften	110
rohr	110
dreht	110
kiste	110
po@@	110
wel@@	110
fotografen	110
ser@@	110
startnummer	110
tern	110
cker	109
schü@@	109
mehrer	109
nähmaschine	109
gemüsestand	109
pfanne	109
kostümierte	109
ber	109
schle@@	109
übers	109
erwachsenen	109
papier@@	109
fi@@	109
spielerin	109
silbernen	109
knie@@	109
flo@@	109
gehalten	108
bä@@	108
lächeln	108
büro	108
wein@@	108
befestigt	108
eh@@	108
ene	108
arti@@	107
hütte	107
nt	107
hin	107
angler	107
straßenmusiker	107
at	107
haube	107
fotoapparat	107
ol@@	107
zeichen	107
natur	106
schnauze	106
biker	106
tz	106
bemalt	106
dessen	106
enen	106
schlauchboot	106
farbenem	106
stahl@@	105
übung	105
ans	105
rollstuhl	105
har@@	105
orangefarbenen	105
schutz	105
bra@@	105
mountainbike	105
dämmerung	104
tüten	104
schlagen	104
nd	104
fe	104
tochter	104
feuerwehrmann	104
ringen	104
kaffee	104
angelt	104
lin@@	104
gu@@	104
draußen	104
kna@@	104
tau@@	104
aufführung	104
land	104
weit	104
karte	103
kunden	103
taucht	103
ober@@	103
gepäck	103
ssen@@	103
erten	103
säcken	103
feldweg	103
sommer@@	103
tollen	103
aktion	103
stadt@@	103
fußballspiel	103
dicht	103
sam@@	103
bearbeitet	102
schlange	102
kopfhörer	102
barfuß	102
fell	102
schuh@@	102
tel@@	102
platte	102
licht	102
kletter@@	102
gläsern	102
arbeits@@	102
teil@@	102
steintreppe	102
figuren	102
ser	102
wal@@	102
ausgebreiteten	102
tier	102
swimmingpool	102
stirnband	102
teils	102
kämpfer	101
schreit	101
heben	101
mmen	101
üben	101
koch	101
körben	101
wohn@@	101
zeichnet	101
trommeln	101
frei@@	101
klavier	101
za@@	101
zuge@@	101
ell@@	101
gewi@@	101
kopfbedeckung	101
umhängetasche	101
tten	100
mel@@	100
ier@@	100
schä@@	100
fußgänger@@	100
det	100
schutzbrille	100
tzt	100
lampe	100
ausrüstung	100
wäscht	100
gar@@	100
del@@	100
spü@@	100
wä@@	100
gespräch	100
chte	100
hemden	100
füllt	99
grillt	99
pft	99
tag	99
kochen	99
topf	99
sprin@@	99
me	99
maler	99
nden	99
mon@@	99
vorder@@	99
mützen	99
zi@@	99
mü@@	98
verkaufs@@	98
zug@@	98
mundschutz	98
steinigen	98
e-@@	98
nahe	98
fels@@	98
werkstatt	98
bäume	98
ße	97
demonstration	97
gitarrist	97
radrennen	97
dunkeln	97
angeln	97
kappen	97
hlen	97
strand@@	97
leicht	97
foto@@	97
hl	97
zweiter	97
fer	96
hauseingang	96
verschiedenen	96
one	96
ki@@	96
glei@@	96
hal@@	96
hilfe	96
regenschirmen	96
fasst	96
rü@@	96
bre@@	96
so	96
elle	96
bad	95
cker@@	95
markt@@	95
ul@@	95
teich	95
kisten	95
fotos	95
stroh@@	95
nehmen	95
weiterer	95
grau	95
pferde	95
anderes	95
goldenen	95
farbenen	95
gemusterten	95
gs@@	94
ör@@	94
moto@@	94
leit@@	94
stufe	94
gend	94
motocrossfahrer	94
schwarz-weißer	94
schmuck	94
straßenecke	94
gummi@@	94
sto@@	93
it	93
all@@	93
kasse	93
kran	93
tracht	93
ts	93
ette	93
wandert	93
tasse	93
marathon	93
th@@	93
ige	93
eienr	93
eishockey@@	93
schale	93
sie@@	92
erer	92
bildern	92
ente	92
wir@@	92
wald@@	92
kle@@	92
schoss	92
american	92
mini@@	92
angel@@	92
schildern	92
malen	92
deckt	92
su@@	92
podest	92
schwimmer	92
winkt	92
maulkorb	92
bzw.	92
deck@@	91
kin@@	91
quad	91
bildschirm	91
schaukeln	91
sei@@	91
training	91
je@@	91
bekommt	91
gelt	91
graue	91
flöte	91
rothaarige	91
stoff	91
papp@@	91
grün@@	91
wie@@	91
basketballer	91
schwe@@	90
booten	90
legen	90
ben@@	90
keyboard	90
mountainbiker	90
sitzender	90
gepflasterten	90
akkordeon	90
männ@@	90
abhang	90
leder@@	90
kro@@	90
koch@@	90
küssen	90
motorroller	90
jeweils	90
rennbahn	90
kunststücke	89
messer	89
grillen	89
jagen	89
ze	89
strassenrand	89
fliegen	89
kajak	89
zwe@@	89
gebäuden	89
fischer	89
bau	89
diese	89
werk@@	89
kletterer	88
flug@@	88
eri@@	88
grill@@	88
gei@@	88
übt	88
putzen	88
fte	88
polizei@@	88
kehrt	88
fast	88
ffen	88
hel@@	88
zie@@	88
ellen	88
rennwagen	88
straßenbahn	88
fern	88
breiten	88
steilen	88
laterne	88
ig	88
ken@@	88
bet@@	88
klapp@@	88
rot@@	88
parkenden	88
seil@@	87
klettergerüst	87
feuerwehrmänner	87
karten	87
ze@@	87
öffnet	87
schwarz@@	87
glatze	87
schne@@	87
fahrenden	87
verkehr@@	87
aufen	87
stift	87
volleyball@@	87
action	87
dr@@	87
indi@@	87
halfpipe	87
gelegt	86
ie@@	86
tt	86
schminkt	86
pan@@	86
schrei@@	86
bike	86
karton	86
stie@@	86
hren	86
schlagzeuger	86
stiefeln	86
sowie	86
traktor	85
hocken	85
kulisse	85
nass	85
kranken@@	85
indische	85
füßen	85
p	85
geri@@	85
auftritt	85
traditioneller	85
stern	85
klippe	85
boote	85
bett@@	85
kapuzen@@	85
rande	85
steinbank	85
bis	85
mar@@	84
ot@@	84
straßenkünstler	84
bla@@	84
liegend	84
dreirad	84
sängerin	84
flaggen	84
chern	84
schneiden	84
start	84
plastiktüte	84
qu@@	83
einsatz	83
hei@@	83
bie@@	83
rührt	83
bur@@	83
teleskop	83
nu@@	83
rucksäcken	83
touristen	83
sucht	83
lehnen	83
streichelt	83
hellbrauner	83
lasso	83
fernrohr	82
grünes	82
fisch@@	82
menschen@@	82
schlei@@	82
gut	82
sbe@@	82
schil@@	82
essen@@	82
stä@@	82
kam@@	82
freut	82
zweikampf	82
geöffneten	82
karate@@	81
wohnung	81
weiteren	81
un	81
feiern	81
obst@@	81
hüpfen	81
golf@@	81
laden@@	81
wand@@	81
ür@@	81
sses	81
ofen	81
gan@@	81
schirmen	81
schriftzeichen	81
paddelt	81
pol@@	81
tische	81
vier@@	81
brust	81
lage	81
tennisschläger	81
heft	81
wen@@	81
luft@@	81
fan@@	81
dunkelhaariger	81
feld@@	81
pla@@	81
säulen	81
alt@@	81
raus	80
zeit@@	80
bastelt	80
promenade	80
verkaufen	80
schaufelt	80
judo@@	80
verteilt	80
treffen	80
älteres	80
silber@@	80
müll	80
fu@@	80
großstadt	80
ban@@	80
eien	80
tiger	80
bel	80
fahrräder	80
schlamm	80
ecke	80
bild@@	79
bückt	79
wüste	79
schweißt	79
säge	79
denkmal	79
getränke@@	79
schwimmbad	79
teig	79
container	79
seines	79
füttert	79
tablett	79
kletterwand	79
ht	79
bil@@	79
stativ	79
drachen	79
buben	79
erd@@	79
richtet	79
handschuh	79
gekleideten	79
holztisch	79
tänzerinnen	79
einkaufs@@	79
schirmkappe	79
torte	78
kutsche	78
rennradfahrer	78
flusses	78
gs	78
entgegen	78
camping@@	78
groß@@	78
zwei@@	78
karussell	78
verkleideter	78
turnt	78
grün-@@	78
tür@@	78
kleinem	78
rugby@@	78
türkis@@	78
tal	78
je	78
herd	77
zweiten	77
balken	77
reinigen	77
blume	77
kau@@	77
kel@@	77
sau@@	77
ausseh@@	77
san@@	77
besu@@	77
ferne	77
brillen	77
rit@@	77
gitter@@	77
deln	77
auslage	77
tze	77
darin	77
schüler	77
tei@@	77
feder@@	77
hock@@	77
werkzeug	76
gestell	76
abend	76
ang	76
verkauf@@	76
ell	76
brettspiel	76
geschirr	76
lle	76
vorn	76
museum	76
for@@	76
gedeckten	76
eishockey	76
plakaten	76
stark	76
ohren	76
weihnachtsbaum	76
schüttet	76
spielerinnen	76
del	76
dra@@	76
ckigen	76
cken@@	76
schaum	75
träger	75
rugby	75
rahmen	75
rast	75
zeich@@	75
zusehen	75
sporthalle	75
nen@@	75
engen	75
taxi	75
aufdruck	75
t-@@	75
fußboden	75
badewanne	75
ton@@	75
stangen	75
hn@@	75
gefüllten	75
seitlich	75
kalb	75
ons	75
wach@@	75
trick	75
net	75
nach@@	75
weiss	75
bro@@	75
cheerleader	75
fahrt	75
offenem	75
zen@@	75
lächelnde	75
farbigen	75
plane	75
gegend	74
afrikanischer	74
wer@@	74
löffel	74
toben	74
box@@	74
stet	74
umzug	74
rollt	74
sal@@	74
es@@	74
gest@@	74
laub@@	74
rum	74
motorrädern	74
decken	74
häuser@@	74
pel	74
röhre	74
buntes	74
blondhaarige	74
polo	74
historischen	74
ausgestreckten	74
puck	74
lange	74
ling	73
vergnü@@	73
ler@@	73
rie@@	73
pferdeschwanz	73
gemälde	73
aten	73
saxophon	73
ssenen	73
bushaltestelle	73
wänden	73
trink@@	73
einkauf@@	73
hell	73
stisch	73
&apos;	73
ziel@@	73
dicker	73
teln	73
hürde	73
darüber	73
feuerwehrleute	73
rauch@@	73
zten	73
fenstern	73
traditionellen	73
kurzem	73
hockey	73
umgehängt	73
kerzen	72
taucherbrille	72
wange	72
anlage	72
trainieren	72
geschminkt	72
bereich	72
ppt	72
labor	72
tänzer	72
umhang	72
tig	72
din@@	72
ak@@	72
zä@@	72
moped	72
spaß	72
schwimmwesten	72
kunststück	72
winter	72
holzsteg	72
feier	72
bärtiger	72
grauhaariger	72
klo@@	72
blo@@	72
sägt	72
fische	72
liege@@	72
span@@	72
stirn	72
hochge@@	72
zöpfen	71
veranda	71
tennisplatz	71
dicken	71
rot-weißen	71
brot	71
einrad	71
künst@@	71
sack@@	71
gießt	71
hört	71
bl@@	71
gri@@	71
gemü@@	71
baren	71
esel	71
kten	71
handtuch	71
mast	71
einkaufsstraße	71
großem	71
herbst@@	71
golf	71
käppi	71
mann@@	71
speisen	71
bord	71
pinsel	71
fernglas	71
westen	71
sin@@	71
daumen	71
strecken	71
fern@@	71
obststand	71
frauen@@	70
blu@@	70
lagerfeuer	70
schieben	70
schaufeln	70
baseballspiel	70
hun@@	70
wär@@	70
direkt	70
versammelt	70
orangenem	70
ens	70
spielern	70
stür@@	70
pin@@	70
erhobenen	70
hellblauem	70
waschen	70
flug	70
gestellt	70
palmen	70
feuerwehr@@	70
turnerin	69
häuser	69
kran@@	69
baden	69
trainiert	69
kante	69
sche@@	69
küchen@@	69
geben	69
treppen	69
fischernetz	69
brüstung	69
dri@@	69
hlt	69
ati@@	69
fra@@	69
schubkarre	69
mikrophone	69
hnen	69
sommerlich	69
pe@@	69
seilt	69
v	68
gucken	68
krei@@	68
mel	68
ju@@	68
bereit	68
röcken	68
strom@@	68
spannt	68
geworfen	68
filmt	68
basteln	68
braun-@@	68
eng	68
trau@@	68
früchten	68
zigar@@	68
wischt	68
verkehr	68
getränke	68
schneeh@@	68
kat@@	68
genen	68
säcke	68
rennfahrer	68
braunes	68
rennrad	68
kopftüchern	68
segel@@	68
hochzeitspaar	67
joggen	67
schienen	67
abend@@	67
vollführt	67
stelle	67
ff@@	67
gürtel	67
afrikaner	67
monitor	67
spor@@	67
blättern	67
beton	67
mt	67
erken@@	67
bri@@	67
motorrad@@	67
pp	67
ballett@@	67
tänzerin	67
fei@@	67
nä@@	67
pen	67
reihen	67
tradition@@	67
bmx	67
rednerpult	67
verkehrsmittel	67
ut	66
kleinkinder	66
hinein	66
tete	66
weint	66
burg	66
wat@@	66
fro@@	66
haarigen	66
basecap	66
tel	66
tter@@	66
tier@@	66
t-shirts	66
heiß@@	66
wetter	66
zelten	66
leh@@	66
vorführung	66
ballspieler	66
gesichert	66
quer@@	66
wurde	65
flecken	65
reit@@	65
kaffee@@	65
fris@@	65
riesige	65
schlafen@@	65
streiten	65
fischen	65
diskutieren	65
schirmmütze	65
rechte	65
bücher	65
box	65
dig	65
mauer@@	65
da	65
tshirt	65
körper	65
teilweise	65
hausfassade	65
ad@@	65
hör@@	65
gläser	65
ca@@	65
al	65
kr@@	65
beigen	65
absperr@@	65
vorm	65
kurz@@	65
rudert	64
bowlingbahn	64
pistole	64
us	64
hn	64
sig@@	64
stei@@	64
sammeln	64
mir	64
schmutz@@	64
schrä@@	64
ph@@	64
turnen	64
ang@@	64
fall	64
fussballspieler	64
akrobati@@	64
axt	64
weit@@	64
welches	64
6	64
pfen	64
herab	64
stö@@	64
gäste	64
fliegenden	64
baseballschläger	64
orange@@	64
sesseln	64
vol@@	64
ohr@@	64
beet	64
alleine	64
län@@	64
sakko	64
köche	63
jubeln	63
elefanten	63
fr@@	63
imbiss	63
reichen	63
sturzhelm	63
wild@@	63
sicherheit@@	63
ziert	63
streich@@	63
spass	63
schna@@	63
kni@@	63
arm@@	63
musiziert	63
co@@	63
blätter	63
schwimmweste	63
arzt	63
blä@@	63
eck@@	63
abends	63
sol@@	63
turban	63
pack@@	63
freu@@	63
geräten	63
schel@@	63
verschränkten	63
ett	63
geschmückten	63
plüsch@@	62
lieren	62
tter	62
ug@@	62
ie	62
ruck@@	62
ander@@	62
gleisen	62
wasserfontänen	62
nung	62
tonne	62
mittelalter@@	62
gender	62
video@@	62
pflaster	62
pfad	62
gegen@@	62
treiben	62
han@@	62
ufer@@	62
gten	62
webstuhl	62
behälter	62
meh@@	62
boxen	62
zweite	62
felsigen	62
weihnachts@@	62
kapu@@	62
pc	62
surfen	62
kaufen	62
ar	62
stapel	62
mp@@	62
tr@@	62
gestellten	62
gräbt	62
metall	62
daran	62
kapuze	62
zusieht	62
gefährt	61
ware	61
jemandem	61
ur	61
ieren	61
stand@@	61
pferde@@	61
wirbelt	61
chel@@	61
luftsprung	61
migen	61
gesi@@	61
vi@@	61
por@@	61
lokomotive	61
mau@@	61
farben	61
schule	61
schrift@@	61
hohe	61
turnhalle	61
sprechen	61
mmert	61
bekleidete	61
show	61
stri@@	61
orange-@@	61
ks	61
geöffne@@	61
startnummern	61
sli@@	61
tätowier@@	61
öff@@	61
instrumente	60
üb@@	60
wanne	60
gegenseitig	60
verschiedene	60
flügel	60
amerikanische	60
bmx-fahrer	60
badehosen	60
sstand	60
front	60
spla@@	60
nack@@	60
nasse	60
dunkelheit	60
ckte	60
werbung	60
form	60
les	60
stell@@	60
he	60
git@@	60
bru@@	60
flügeln	60
mehr@@	60
holzzaun	60
flugzeug@@	60
ord@@	60
mikrofonen	60
ds	59
super@@	59
tur@@	59
bern	59
fleisch@@	59
geschla@@	59
kampfsport	59
hol@@	59
pal@@	59
stof@@	59
beiger	59
nn@@	59
lebensmittel	59
gipfel	59
hellbraunen	59
brennenden	59
dampf@@	59
wette	59
dort	59
waschsalon	59
oberteilen	59
golden@@	59
hantiert	59
gitarristen	58
far@@	58
gespannt	58
ziegel@@	58
mer	58
bauch@@	58
spiegel@@	58
stol@@	58
kö@@	58
herr	58
telefon	58
karre	58
hüpfburg	58
sortiert	58
skat@@	58
neoprenanzug	58
bullen	58
bietet	58
ani@@	58
kampfsportler	58
rede	58
overall	58
skate@@	58
trock@@	58
berge	58
hüte	58
gal@@	58
schri@@	58
fingern	58
os	58
wagens	58
geld@@	58
grin@@	58
wind@@	58
jahrmarkt	58
platten	58
gung	58
beladen	58
schem	58
jeansjacke	58
rollschuh@@	57
tätowi@@	57
kopfschmuck	57
näht	57
pfeiler	57
drückt	57
laptops	57
badet	57
freuen	57
ka	57
buch@@	57
straßen	57
fo@@	57
gh@@	57
tw@@	57
ut@@	57
studio	57
mark@@	57
langhaarige	57
1@@	57
ssel	57
farbener	57
flu@@	57
passagi@@	57
brenn@@	57
rodeoreiter	57
zogenen	57
hinaus	57
spring@@	57
digen	57
spu@@	57
surfboard	57
schrau@@	57
benen	57
gro@@	56
verkäuferin	56
schlägern	56
früchte	56
lachender	56
damit	56
säu@@	56
hten	56
rind	56
kir@@	56
heu	56
liches	56
schö@@	56
spaziert	56
go@@	56
marki@@	56
dert	56
hölzernen	56
schreiben	56
schilder	56
sportlerin	56
team	56
gre@@	56
sten@@	56
för@@	56
frisbeescheibe	56
teppi@@	56
banan@@	56
ischen	56
start@@	56
pink@@	56
gle@@	56
schießen	56
schwarz-weißen	56
rutschen	56
dan@@	56
beachvolleyball	56
sho@@	56
no@@	56
ruderboot	56
zer	56
tlich	56
mittel@@	56
jemanden	56
stan@@	56
itten	56
match	56
hinderni@@	56
baumes	56
viole@@	56
brü@@	56
genie@@	55
)	55
pf	55
griff	55
lü@@	55
kann	55
zeigefinger	55
para@@	55
dudelsack	55
wor@@	55
bowlingkugel	55
brettern	55
treppen@@	55
zuschauen	55
chtung	55
skil@@	55
lichem	55
café	55
asphalt	55
schneelandschaft	55
musikern	55
bedeckten	55
w	55
rasenfläche	55
nasser	55
gleitet	55
bli@@	55
spritzen	55
sel	55
paddeln	55
schutzhelmen	55
zusammenge@@	55
flüssigkeit	55
ausstellung	54
bohrt	54
hockey@@	54
beleuch@@	54
hafen@@	54
bun@@	54
(	54
geschäfts	54
lusti@@	54
cross@@	54
schneidersitz	54
stiefel	54
meeres@@	54
schwar@@	54
kameras	54
begrü@@	54
weg@@	54
bedeckt	54
freun@@	54
grund	54
treibt	54
neben@@	54
dü@@	54
komi@@	54
händler	54
lesend	54
holzboot	54
jun@@	54
kur@@	54
pel@@	54
telefonierend	54
bemal@@	54
fußballplatz	54
wü@@	54
mönche	54
mikro	54
ppen@@	54
luf@@	54
bass@@	54
fli@@	54
lli@@	54
modell@@	54
cktem	54
unterführung	54
räumt	53
fuß@@	53
spin@@	53
irgend@@	53
sieben	53
iten	53
sprüht	53
tion	53
holen	53
kauft	53
schiff@@	53
vorsprung	53
präsentiert	53
cher@@	53
liegen@@	53
amerikanischen	53
erend	53
tiert	53
schnappt	53
ckter	53
zahn@@	53
geld	53
steile	53
els	53
etten	53
ün@@	53
maschinen	53
gela@@	53
seifenblase	53
locken	53
gefä@@	53
gerin	53
vitrine	53
füße	53
leuch@@	53
blech@@	53
aufgeri@@	53
lastwagen	53
kel	53
darunter	53
basketballspiel	53
hallen@@	53
snowboardfahrer	53
gefle@@	53
stellen	52
grube	52
kiosk	52
schere	52
erkli@@	52
herren	52
schmu@@	52
kneipe	52
stop@@	52
stofftier	52
chinesischen	52
frei	52
geparkten	52
app@@	52
stroh	52
kleidchen	52
fernseher	52
tarn@@	52
elektro@@	52
klei@@	52
swe@@	52
mönch	52
eres	52
mund@@	52
waschbecken	52
pun@@	52
weiter	52
splatz	52
ches	52
rasen@@	52
stürzt	52
rudern	52
demonstrieren	52
schwer@@	52
sandplatz	52
reiterin	52
trö@@	52
tüchern	52
überdachten	52
kies@@	52
wasserflasche	52
pavil@@	52
straßenkreuzung	52
kübel	52
unterschied@@	52
fußgänger	51
springer	51
fröh@@	51
ent	51
bude	51
sitzten	51
geschminkte	51
schlafend	51
bälle	51
bräutigam	51
x	51
telefonieren	51
zweier	51
lächelnder	51
gru@@	51
rauf	51
frau@@	51
grosse	51
belebte	51
techni@@	51
läu@@	51
fackeln	51
stücke	51
ack@@	51
plattform	51
rosa@@	51
wett@@	51
schanze	51
schnell	51
telefonzelle	51
ing@@	51
linke	51
reißt	51
zylinder	51
braut@@	51
pflanze	51
zieh@@	51
lach@@	51
gabel	51
flohmarkt	51
gung@@	51
ven@@	51
langhaariger	51
gehängt	51
schneeschuhen	51
gefüllt	51
altes	50
uft	50
geburtstag@@	50
kampfsport@@	50
s-@@	50
staffelei	50
suchen	50
schlitt@@	50
geschä@@	50
ähn@@	50
kapelle	50
hö@@	50
felsvorsprung	50
kit@@	50
prü@@	50
seh@@	50
karierter	50
jubelt	50
y	50
menschenma@@	50
bücher@@	50
oberkörper@@	50
rasi@@	50
umringt	50
herr@@	50
meln	50
tiefen	50
wasserfontäne	50
gebir@@	50
spritz@@	50
niedrigen	50
welpen	50
terasse	50
diesen	50
sees	50
arabi@@	50
raufen	50
ketten@@	50
zahnbürste	50
wö@@	50
dicke	50
scheint	50
meiß@@	50
formt	50
cowboy@@	50
2@@	50
fotograf	50
gemüse@@	49
kreuz	49
kop@@	49
gebo@@	49
cheerleader@@	49
büchern	49
befesti@@	49
motorboot	49
ziehharmonika	49
fallen	49
hecke	49
gebückt	49
außen@@	49
noten@@	49
blau@@	49
werk	49
zeitungen	49
mess@@	49
ließt	49
tigt	49
oren	49
sor@@	49
igem	49
sammelt	49
tellern	49
kick@@	49
spielende	49
zäunten	49
untergrund	49
trainer	49
drängt	49
hindurch	49
ffel	49
ringer	49
pinkfarbenen	49
ckel@@	49
sonnenschein	49
aufgebaut	49
gerü@@	49
recht	49
hohem	49
dreh@@	49
frisur	49
ms	49
stunt	49
deren	49
helle	49
x@@	49
ran@@	49
wartend	48
motorräder	48
kommen@@	48
stat@@	48
blasen	48
bb@@	48
gleich	48
stelzen	48
mes	48
offen@@	48
gerä@@	48
its	48
kellner	48
kli@@	48
hr	48
menschengruppe	48
kleider	48
rock@@	48
zei@@	48
geschenk	48
seiten@@	48
fol@@	48
3@@	48
feuerwehrauto	48
webt	48
klamotten	48
einfa@@	48
nackte	48
ve@@	48
ladefläche	48
packen	48
dazu	48
gleichzeitig	48
kartons	48
jogging@@	48
us@@	48
mal	48
flughafen	48
sandweg	48
viel@@	48
spring	48
che@@	48
sportl@@	48
kleidungs@@	48
orientali@@	48
aush@@	48
oldtimer	48
qual@@	48
montur	48
offener	48
ünen	48
banner	48
größ@@	48
billard@@	48
fahrradhelm	48
ißt	48
ballons	48
verschneite	48
gegenspieler	48
allee	48
hochhäusern	48
gegneri@@	48
bogen@@	47
wasserstrahl	47
baugerüst	47
rettungs@@	47
or	47
iti@@	47
lagen	47
köpfen	47
schlä@@	47
stöckchen	47
imbiss@@	47
dusche	47
stäbchen	47
öffentlichkeit	47
aussicht@@	47
tige	47
pre@@	47
tscht	47
runde	47
kunstwerk	47
inlineskates	47
schwarz-weiß	47
trommelt	47
gleis	47
haariges	47
zurück	47
melonen	47
dieser	47
transportiert	47
bas@@	47
graffit@@	47
rä@@	47
gebeugt	47
bahnen	47
lachendes	47
fuss	47
rally@@	47
schaft	47
jubel@@	47
holzboden	47
blüten	47
trockne@@	47
ses	47
verkleideten	47
spit@@	47
gegenstände	47
rollen	47
schnur	47
model@@	47
stär@@	47
henden	47
zogen@@	47
reini@@	46
fah@@	46
lk@@	46
schwert	46
zeitschrift	46
aufzu@@	46
ballspiel	46
brandung	46
mi	46
wur@@	46
schiffes	46
tenden	46
gr@@	46
ausgelassen	46
rosafarbenen	46
konzentriert	46
plastik	46
eu@@	46
hi@@	46
fans	46
badekleidung	46
schüsseln	46
toile@@	46
buggy	46
gitar@@	46
schnitt	46
karne@@	46
friseur	46
beige	46
warn@@	46
beutel	46
surf@@	46
beln	46
draussen	46
beleu@@	46
holzbalken	46
red@@	46
notebook	46
stehende	46
kontrabass	46
pfer@@	46
kegel	46
spannten	46
pinkem	46
reg@@	46
schotter@@	46
seichten	46
blau-weißen	46
schräg	46
spei@@	46
brauen	46
sprun@@	46
kletter	45
ärzte	45
athle@@	45
stühle	45
pflaster@@	45
fahrerin	45
hle	45
bowling	45
dosen	45
cello	45
schar@@	45
phon	45
kanal	45
spra@@	45
formation	45
ren	45
lang	45
mme	45
spitze	45
schwin@@	45
non@@	45
polizei	45
ja@@	45
kes	45
fun@@	45
brunnens	45
ver	45
präsentation	45
hügel@@	45
winterkleidung	45
krie@@	45
fall@@	45
kurz	45
muster	45
lande@@	45
bein@@	45
bindet	45
eben	45
wan@@	45
vögel	45
auer	45
noti@@	45
see@@	45
befahre@@	45
fuss@@	45
breitet	45
ien	45
gie@@	45
wettbewerb	45
hosen@@	45
schmale	45
abgesperrten	45
orangen@@	45
schach@@	45
farbene	45
aufgestellt	45
kol@@	45
wasserbecken	45
ansieht	44
ständer	44
sm@@	44
lok	44
badekappe	44
ansehen	44
schutzweste	44
spielzeugauto	44
spielautomaten	44
achterbahn	44
krabbelt	44
streichen	44
werbeplakat	44
gefüll@@	44
computern	44
fil@@	44
schnei@@	44
musikinstrumenten	44
tollt	44
flur	44
gern	44
schlo@@	44
schwimmerin	44
pira@@	44
schwen@@	44
militär@@	44
drän@@	44
meeres	44
welche	44
eltern	44
jeep	44
tscher	44
sschild	44
kugeln	44
fallschirmspringer	44
hunderennen	44
rollern	44
latzhose	44
diesem	44
c	44
tru@@	44
begutachtet	44
hautfarbe	44
fussgänger@@	44
ubahn	44
windhund	44
können	44
bus@@	44
strümpfen	44
chinesi@@	44
rennauto	44
aufnahme	44
kehr@@	44
trä@@	44
orangener	44
ssenem	44
nackter	44
dunkle	44
elektroni@@	44
büschen	44
glä@@	44
chinesische	44
gleit@@	44
braun@@	44
gleichen	44
schachtel	44
begleit@@	44
marschieren	44
linie	44
schwarzhaariger	44
geschlossen	44
punkt	44
gehoben	44
wippe	43
vö@@	43
fechten	43
boots@@	43
getrei@@	43
erte	43
musikanten	43
pfahl	43
steinernen	43
haltung	43
freund@@	43
käfig	43
feuerwehr	43
stände	43
tafeln	43
tief@@	43
ps	43
einfahrt	43
bewegen	43
jong@@	43
zel@@	43
iter	43
chtes	43
stel@@	43
gende	43
wil@@	43
eingang@@	43
spa@@	43
gemacht	43
hochzeit	43
pfoten	43
glück@@	43
reibt	43
sku@@	43
rennens	43
klar@@	43
folgt	43
eben@@	43
umgebung	43
bundenen	43
geschnallt	43
schlag@@	43
wäl@@	43
fels	43
apfel	43
fon	43
lehrer	43
vieren	43
rosen	43
bewegung	43
stamm	43
aden	43
y-@@	43
kimono	43
lebensmitteln	43
rasenplatz	43
flü@@	43
schirm@@	43
acht	43
genden	43
blühenden	43
zusammen@@	43
teams	43
spielgerät	43
verkauf	42
leckt	42
pen@@	42
wein	42
aquarium	42
sprungbrett	42
musikinstrum@@	42
skleidung	42
waschmaschine	42
festhält	42
schweiß@@	42
schaf	42
kämpft	42
gondel	42
drauf	42
schaukel@@	42
skyline	42
pflü@@	42
gummistiefeln	42
japani@@	42
skostüm	42
bedi@@	42
boden@@	42
mountain@@	42
blumenstrauß	42
tin	42
asiatinnen	42
gä@@	42
luftball@@	42
taube	42
berges	42
schmutzigen	42
hüb@@	42
zopf	42
laufbahn	42
ballett	42
häuserwand	42
pudel	42
stau@@	42
ob@@	42
bechern	42
mischpult	42
schlu@@	42
steuer	42
stücken	42
lich@@	42
los	42
u-bahn@@	42
ffeln	42
tä@@	42
viert	42
sprei@@	42
tankstelle	42
aussieht	42
sprung@@	42
komplett	42
besetzten	42
betä@@	42
bmx-rad	42
gescho@@	42
plastiktüten	42
ebenfalls	42
kamelen	42
schürzen	42
spielend	42
auge	42
blü@@	42
kostümierter	42
blasinstrument	42
teilen	42
border	42
fechter	42
chert	41
pfosten	41
dam@@	41
platzes	41
moder@@	41
kameramann	41
liege	41
passage	41
.@@	41
pper	41
dick@@	41
klatschen	41
sanddüne	41
tücher	41
staubsauger	41
angelein@@	41
fahrer@@	41
form@@	41
läng@@	41
älter@@	41
koffern	41
club	41
köpfe	41
brötchen	41
rangeln	41
sonnen	41
ierten	41
eink@@	41
theater@@	41
aneinander	41
tenen	41
mmer	41
kräf@@	41
eimern	41
bten	41
son@@	41
samen	41
kanne	41
verkleidung	41
schwebt	41
schlucht	41
mier@@	41
bastel@@	41
ites	41
produ@@	41
mei@@	41
braun-weißer	41
drit@@	41
grä@@	41
tsch@@	41
putz@@	41
ele@@	41
mäht	41
seiten	41
gelän@@	41
ener	41
ärmello@@	41
bewegt	41
rum@@	41
packten	41
hellblauer	41
löschen	41
miert	41
fischer@@	41
gegner	41
gesichts@@	41
ausgestre@@	41
nerin	41
änger	41
jean@@	41
geblüm@@	41
hausecke	41
ketten	41
gewehren	41
zuschauer@@	41
tex@@	41
zier@@	41
umher	41
beschnupper@@	40
bringt	40
trak@@	40
verzierten	40
weibliche	40
imbi@@	40
rollstuhl@@	40
erhö@@	40
notenständer	40
farben@@	40
heu@@	40
wasch@@	40
beladenen	40
sicht@@	40
windhunde	40
blasinstrum@@	40
bö@@	40
holzbrett	40
windsurfer	40
geländewagen	40
reise@@	40
ilt	40
druck	40
hausmauer	40
neu@@	40
tempel	40
afrikani@@	40
rosaroten	40
zielt	40
vollbart	40
meere@@	40
nie@@	40
durchsich@@	40
brautkleid	40
springend	40
wurf@@	40
masken	40
berührt	40
satz	40
zeu@@	40
bereit@@	40
wachsenen	40
äufer	40
schieß@@	40
trie@@	40
musi@@	40
kanufahrer	40
knie	40
konstruktion	40
glasscheibe	40
hellbraune	40
-shirt	40
sportlich	40
ladens	40
altar	40
marathonläufer	40
bunt@@	40
kani@@	40
aufschlag	40
schrift	40
gerannt	40
japan@@	40
bär@@	40
badeshorts	40
kostümier@@	40
motocross	40
finger@@	40
ssem	40
verschieden@@	40
schirme	40
haarig	40
männliche	40
kreide	39
snow@@	39
sandalen	39
au	39
gesellschaft	39
obje@@	39
stütz@@	39
umm@@	39
fröhlich	39
we	39
gold@@	39
bearbeiten	39
mäd@@	39
bootes	39
erwachsener	39
gefilmt	39
kre@@	39
geschmü@@	39
vors	39
matratze	39
geschen@@	39
tattoo	39
stecken	39
taucher@@	39
fitness@@	39
drahtzaun	39
treten	39
folie	39
dunkelhäuti@@	39
unen	39
scheinwerferlicht	39
klebt	39
selbst	39
pfeife	39
sat@@	39
friseur@@	39
zimmer@@	39
orangefarbener	39
plan	39
pose	39
arr@@	39
klappstuhl	39
beckenrand	39
türkisen	39
lerin	39
shalle	39
xt	39
aber	39
erwischen	39
karate	39
doppel@@	39
rothaari@@	39
angezogen	39
umt	39
feu@@	39
hütchen	39
anhöhe	39
nde	39
schönen	39
zetteln	39
stab@@	39
dok@@	39
wunder@@	39
jo@@	39
hüfte	39
gestre@@	39
krau@@	39
rücklings	39
leere	39
ehn@@	39
perücke	39
tetes	39
top@@	39
base	39
sprintet	39
parkanlage	39
gehüllt	39
scheinbar	39
ess@@	38
jün@@	38
herunterge@@	38
handwerker	38
spar@@	38
einkaufszentrum	38
ziel	38
kindersitz	38
schnell@@	38
fahrern	38
kopfstand	38
gestikuliert	38
are	38
tricks	38
gästen	38
ziege	38
behand@@	38
holzhaus	38
schalen	38
staubigen	38
stro@@	38
gestri@@	38
aufblas@@	38
liefer@@	38
jugendlichen	38
plüschtier	38
schlittschuhen	38
richten	38
hocke	38
kostü@@	38
fallen@@	38
haft	38
garage	38
ansammlung	38
coach	38
sieger@@	38
stramp@@	38
einkaufen	38
mischer	38
weihnachtsmann	38
kell@@	38
gebilde	38
wettrennen	38
zone	38
faust	38
fell@@	38
reifen@@	38
währen	38
federn	38
läßt	38
zerr@@	38
wollen	38
artigen	38
football-spieler	38
schützern	38
pier	38
einkaufstüten	38
demo	38
wasserrutsche	38
bahngleis	38
gestell@@	38
akten@@	38
hnen@@	38
kund@@	38
steinwand	38
bibliothek	38
bat@@	38
sportwagen	38
fin@@	38
die@@	38
radrenn@@	38
disk@@	38
wellen@@	38
treppengeländer	38
kühl@@	38
gesäumten	38
scheinwer@@	38
paare	38
sport-@@	38
braunhaarige	38
blond	38
malten	37
picknick	37
dchen	37
liegende	37
gehstock	37
quad@@	37
wendet	37
unt	37
sprün@@	37
blech	37
außen	37
schmie@@	37
berglandschaft	37
beu@@	37
rund	37
zuhör@@	37
us-@@	37
liert	37
angelehnt	37
füllen	37
rut@@	37
spi@@	37
bor@@	37
altertüm@@	37
zange	37
tion@@	37
jahr@@	37
zeug@@	37
kerze	37
fegen	37
blumenwiese	37
enge	37
palme	37
töpfen	37
planke	37
landet	37
lack@@	37
rosanen	37
mitt@@	37
frü@@	37
geschminkter	37
hinderniss	37
motorhaube	37
basket@@	37
kegeln	37
bam@@	37
freizeit@@	37
sträuchern	37
-spieler	37
gebäude@@	37
imbissstand	37
besucher	37
demonstranten	37
bärtige	37
innenstadt	37
segelboot	37
schlaf@@	37
pflan@@	37
empor	37
boarder	37
tenni@@	37
hockeyspieler	37
stert	37
koko@@	37
hängenden	37
abfahrt	37
stur@@	37
strick@@	37
beachvolleyball@@	37
fußballfeld	37
sprü@@	37
diver@@	37
türki@@	37
kontrolliert	36
gestützt	36
cross-@@	36
roller@@	36
teenager	36
scheiben	36
festival	36
nachdenklich	36
akro@@	36
schlitten@@	36
fackel	36
radfahrerin	36
breakdance	36
wasserschlauch	36
chtem	36
kai	36
deck	36
schreib@@	36
fru@@	36
gur@@	36
stap@@	36
ballen	36
torbogen	36
fensterputzer	36
ram@@	36
meschen	36
ruhen	36
sich@@	36
außer@@	36
violetten	36
bretter	36
klatscht	36
grü@@	36
feuerwerk	36
greifen	36
keit	36
..	36
geschenke	36
fluß@@	36
nägel	36
rutsch@@	36
weihnacht@@	36
begutachten	36
wickelt	36
rauch	36
restaurants	36
rollerblades	36
blättert	36
iel@@	36
strauß	36
mikrosk@@	36
sprech@@	36
straßencafe	36
innen@@	36
feldes	36
fächer	36
schuluniform	36
zuges	36
buffet	36
interessiert	36
schnuller	36
ssel@@	36
motorsäge	36
mega@@	36
pinker	36
pizz@@	36
mobilen	36
bringen	36
ballon	36
kamin	36
quer	36
ue	36
geschnitten	36
ters	36
brüne@@	36
cappy	36
zeug	36
unzählige	36
steu@@	36
fass@@	36
grauhaarige	36
jeans@@	36
säubert	35
schottenrock	35
waggon	35
schlen@@	35
rauchen	35
ele	35
wasserski	35
endem	35
lung	35
schleier	35
saxof@@	35
iges	35
gleise	35
gefleckter	35
tele@@	35
uniformierte	35
setzen	35
marktplatz	35
spitzen	35
ed	35
parken	35
obdachloser	35
schritt	35
ihres	35
würstchen	35
üffelt	35
kirchen@@	35
tiefschnee	35
wiesen@@	35
py@@	35
herum@@	35
schnitzt	35
eier	35
körbe	35
schwimmreifen	35
abgebildet	35
indian@@	35
türen	35
grosser	35
tablet	35
arbeitern	35
gestreckt	35
gerüst@@	35
augen@@	35
bauer	35
min@@	35
wüsten@@	35
lilafarbenen	35
misch@@	35
schmin@@	35
essens@@	35
kite@@	35
ruder@@	35
jogger	35
frisbe@@	35
gebü@@	35
hinterrad	35
selbstge@@	35
5@@	35
überspringt	35
nnen	35
helme	35
gruppen@@	35
stellung	35
anten	35
beschrif@@	35
gebiet	35
mehere	35
selfie	35
fahrzeuge	35
gruppen	35
holzbrücke	35
drand	35
grei@@	35
bändern	35
rodeo@@	35
histori@@	35
klasse	35
teter	35
schulter@@	35
besprü@@	35
zelt@@	35
wettkampf@@	35
semmel@@	35
alen	34
aussicht	34
genießen	34
ehr@@	34
pokal	34
tü@@	34
cours	34
hochzeits@@	34
statur	34
uni@@	34
einer@@	34
halte@@	34
kratzt	34
hohes	34
saugt	34
gebäck	34
kegel@@	34
türe	34
elektrischen	34
bot@@	34
mülleimer	34
flieger	34
näh@@	34
party@@	34
gruppenfoto	34
gitarrenspieler	34
jung@@	34
probiert	34
halsk@@	34
tung	34
diri@@	34
kür@@	34
tief	34
schaufenster@@	34
dirigiert	34
cricket	34
asien	34
lippen	34
frorenen	34
sonnebrille	34
baby@@	34
schafe	34
haariger	34
glastür	34
bäuchlings	34
mb@@	34
gestreifter	34
inen	34
lädt	34
pä@@	34
haken	34
brä@@	34
holzstück	34
strei@@	34
jog@@	34
gestikuli@@	34
offen	34
cola	34
abzu@@	34
sper@@	34
flach@@	34
rolle	34
hoop	34
tar@@	34
und@@	34
mil@@	34
trägern	34
schein@@	34
uhr	34
schulklasse	34
vorstellung	34
stadions	34
inlin@@	34
bän@@	34
gras@@	34
zündet	34
maschinen@@	34
wolken	34
verk@@	34
re	34
leibchen	34
matten	34
pink	34
vo@@	34
töpfert	34
wollmütze	34
frisch	34
engli@@	34
zuseh@@	34
ssa@@	34
einkaufspassage	34
sonnenhut	34
schlam@@	34
grau-@@	34
arbeitsmontur	34
schwan	33
grenz@@	33
schrank	33
skateboar@@	33
pustet	33
grima@@	33
bohr@@	33
sonnigen	33
kabel	33
fahrgeschäft	33
aussehende	33
dj	33
hängematte	33
vorüber	33
näch@@	33
schwa@@	33
schwim@@	33
füssen	33
südländi@@	33
rasenmäher	33
geschminkten	33
polizistin	33
rein@@	33
messe	33
4@@	33
kajakfahrer	33
key@@	33
spiele	33
applaudi@@	33
ckchen	33
züge	33
and	33
sitzbank	33
rücken@@	33
val@@	33
hochzeit@@	33
zurück@@	33
geführt	33
mülltonne	33
hahn	33
fliesen	33
sum@@	33
küste	33
fallschirm	33
babys	33
pati@@	33
flaches	33
ruht	33
musikkapelle	33
lam@@	33
schlafendes	33
laufband	33
mitarbeiter	33
möwen	33
grau@@	33
tiere	33
bün@@	33
tchen	33
footballspiel	33
gehängten	33
balanci@@	33
jacket	33
süßigkeiten	33
ral@@	33
arren	33
handys	33
wovon	33
schneebedeckte	33
strickmütze	33
ven	33
panorama	33
bauten	33
egten	33
fass	33
mor@@	33
springenden	33
läauft	33
transparent	33
motorcrossfahrer	33
belad@@	33
lauter	33
nikol@@	33
tippt	33
letz@@	33
pos@@	33
cricket@@	33
räumen	33
indischen	33
scheln	33
schlafanzug	33
sonnenschirmen	33
hellgrünen	33
bemalen	33
abla@@	33
korpulente	33
mänteln	33
ce@@	33
lern	33
automat	33
sandhügel	33
sur@@	33
eisenbahn	33
mappe	33
0@@	33
geschmückt	33
gebunden	33
beschäftigt	33
gegenständen	33
eiskunst@@	33
äste	33
ex@@	33
ligen	32
ali@@	32
stum@@	32
aufeinander	32
backen	32
golfspieler	32
halt	32
transpor@@	32
bow@@	32
bahngleisen	32
nebel	32
fabrik	32
spaziergang	32
dudel@@	32
motor	32
werfer	32
rist@@	32
bilden	32
kippt	32
herunter@@	32
stän@@	32
sl@@	32
grimassen	32
probe	32
viol@@	32
cam@@	32
mahlzeit	32
bekleide@@	32
händ@@	32
sommerlicher	32
eishockeyspiel	32
ling@@	32
famili@@	32
buddelt	32
iroke@@	32
gefangen	32
acker	32
ti	32
zubereiten	32
gem@@	32
rasier@@	32
u-bahn-station	32
ausgebreitet	32
stapelt	32
handschuhe	32
staffel@@	32
wilden	32
weinendes	32
lila@@	32
tand@@	32
transporter	32
to	32
hren@@	32
dunkelhaariges	32
baseballfeld	32
musikant	32
gefäß	32
go	32
häuschen	32
hürden@@	32
klö@@	32
proje@@	32
dorf	32
abgeworfen	32
beisst	32
ruhi@@	32
podium	32
dritte	32
rettung@@	32
computer@@	32
temp@@	32
entfernt	32
graues	32
tanzfläche	32
karussel	32
geb@@	32
gepäck@@	32
rückwärts	32
angebo@@	32
spieles	32
wol@@	32
holzhütte	32
spre@@	32
llen	32
clown@@	32
asphaltierten	32
ff	32
staub	32
aufgereiht	32
cour	32
masten	32
rosan@@	32
opf	32
erhoben@@	32
wolke	32
ich	32
nad@@	32
ller@@	32
polo@@	32
begrünten	32
steinboden	32
gele@@	32
operation	32
rekla@@	32
zau@@	32
paddel	32
siert	32
hocker@@	32
chenen	32
nehmer	32
gesä@@	32
bordstein	31
schmei@@	31
qua@@	31
bergh@@	31
planscht	31
fel	31
rikscha	31
fotographiert	31
asiatisch	31
kom@@	31
ma	31
ed@@	31
billard	31
ckelt	31
motoradfahrer	31
kürbis	31
marsch@@	31
helfen	31
all	31
sandigem	31
putzer	31
cowboys	31
ortiert	31
beckens	31
per	31
motorradrennfahrer	31
protest@@	31
la-@@	31
zuschauermenge	31
erzählt	31
budd@@	31
winken	31
stätte	31
bewegungen	31
findet	31
pelz@@	31
ttern	31
haustür	31
laster	31
straßenstand	31
flussufer	31
hochzeitstorte	31
hängend	31
netzen	31
amerikanischer	31
plakate	31
schütz@@	31
abenddämmerung	31
schutzwesten	31
interviewt	31
regalen	31
american-@@	31
sandboden	31
cock@@	31
weise	31
rub@@	31
by@@	31
speise@@	31
eht	31
usa	31
eng@@	31
riesen@@	31
ruine	31
stäben	31
priester	31
pit@@	31
hubschrauber	31
zügen	31
lon	31
beißen	31
häuserfront	31
sufer	31
lenker	31
erei	31
bikefahrer	31
dä@@	31
zeugen	31
sperr@@	31
rolltor	31
ation@@	31
holzwand	31
erleuchteten	31
zeile	31
nächt@@	31
angebracht	31
gemustertem	31
fft	30
steh	30
steuert	30
erdhügel	30
schimmel	30
sn@@	30
ite	30
hre	30
scho@@	30
wäsche@@	30
benutzt	30
blöcken	30
kara@@	30
weiten	30
verm@@	30
gymnastik	30
bin@@	30
schnurr@@	30
trompe@@	30
uniformierter	30
steilwand	30
strandpromenade	30
wisch@@	30
irä@@	30
autoreifen	30
breite	30
paket	30
person@@	30
verfolgt	30
do	30
herz@@	30
tensilien	30
gurt	30
tomaten	30
inder	30
strickt	30
inder@@	30
gehal@@	30
bohrmaschine	30
gepark@@	30
arme@@	30
laut@@	30
statt	30
klassenraum	30
maschen@@	30
brocken	30
gas@@	30
zeh@@	30
festlich	30
besta@@	30
hühn@@	30
sattel	30
gelände@@	30
menden	30
heran@@	30
dunkelblauen	30
end@@	30
mobiltelefon	30
karus@@	30
wu@@	30
kamer@@	30
photograph@@	30
indianer	30
betre@@	30
ant	30
bemalte	30
pfad@@	30
training@@	30
op-@@	30
dd@@	30
vat@@	30
aufgang	30
tend	30
chten@@	30
position	30
verschrän@@	30
skater@@	30
beugen	30
sandi@@	30
zahlreiche	30
feuert	30
drei@@	30
äl@@	30
hochhaus	30
beschmierten	30
unterhose	30
handwagen	30
dung	30
krankenbett	30
spag@@	30
läuferinnen	30
nah	30
plak@@	30
asphalt@@	30
woll@@	30
ähnlichen	30
antiken	30
gerol@@	30
größeren	30
kahlen	30
kollegen	30
kurzarmhemd	30
jockeys	30
entgegen@@	30
oberhalb	30
hula	30
senkre@@	30
nat@@	30
langes	30
gefär@@	30
lamp@@	30
ttem	30
schmiert	30
sekt@@	30
montiert	30
licht@@	30
trainingsanzug	30
waa@@	30
namen@@	30
rot-weiß	30
gilet	30
hängebrücke	29
boot@@	29
erie	29
markthalle	29
turnier	29
sportanzug	29
busch	29
führer	29
schöne	29
laufenden	29
sicher@@	29
jag@@	29
strohhalm	29
mädchens	29
eiswagen	29
trommler	29
que@@	29
bere@@	29
jet@@	29
kaut	29
turen	29
schach	29
weiser	29
kofferraum	29
korpulenter	29
kinn	29
kne@@	29
drehten	29
kickt	29
hebebühne	29
lil@@	29
tonnen	29
chs	29
banjo	29
schmetterling	29
höhle	29
sträu@@	29
funk@@	29
einzel@@	29
up	29
geschäfts@@	29
indem	29
cap	29
mlich	29
eingeschlafen	29
halstuch	29
gepunkteten	29
ehepaar	29
brief@@	29
hnt	29
pfle@@	29
werkbank	29
selt@@	29
geschn@@	29
übergang	29
iner	29
ttert	29
vogel@@	29
hinweg	29
ner@@	29
barren	29
pfeil	29
tou@@	29
llt	29
sonnt	29
glatzköpfiger	29
fasch@@	29
stößt	29
schwanz	29
töpfer@@	29
monit@@	29
verteilen	29
änge	29
weisse	29
plat@@	29
käm@@	29
geöff@@	29
pilot	29
fahrrads	29
harmonika	29
tum@@	29
grafitti	29
wildpferd	29
pferderen@@	29
soldat@@	29
tö@@	29
0	29
ffe	29
gere@@	29
zugabteil	29
skianzug	29
operation@@	29
new	29
sockel	29
fahrrades	29
kreuz@@	29
hütten	29
tha@@	29
lehrerin	29
lla@@	29
bürste	29
g-@@	29
waffe	29
kühen	29
gatter	29
einkaufstaschen	29
laternen	29
dru@@	29
lokals	29
jack@@	29
schleife	29
sicht	29
freizeitkleidung	29
ket@@	28
pizza	28
cke@@	28
sü@@	28
im@@	28
xylo@@	28
wit@@	28
pt	28
latte	28
platz@@	28
kleid@@	28
skateboards	28
einkaufstü@@	28
glo@@	28
mou@@	28
gymnasti@@	28
abgesperr@@	28
tän@@	28
8	28
moti@@	28
pickup	28
telefon@@	28
bür@@	28
gg@@	28
zü@@	28
eine@@	28
teh@@	28
ari@@	28
gol@@	28
pass@@	28
reno@@	28
lächeln@@	28
sun@@	28
mach@@	28
train@@	28
7	28
ach@@	28
sser	28
bele@@	28
hydr@@	28
wärts	28
schot@@	28
prote@@	28
fahre@@	28
bikini@@	28
ws	28
ann@@	27
bedeck@@	27
farbi@@	27
stam@@	27
skulp@@	27
ttform	27
sit@@	27
sole	27
truck	27
schre@@	27
sz@@	27
spark	27
bass	27
golfer	27
ap@@	27
skatepark	27
ig@@	27
monopoly	27
ute	27
tur	27
uren	27
mikro@@	27
inline@@	27
cr@@	27
ktion	27
pools	27
ori@@	27
zieren	27
ander	27
lad@@	27
oli@@	27
fün@@	27
drü@@	27
theater	27
besetz@@	27
klassen@@	27
fts@@	27
ind	27
setz@@	27
ort	27
pers@@	27
geno@@	27
inform@@	27
blon@@	27
hotel	27
d-@@	27
bed@@	26
teilt	26
nis	26
lebensmit@@	26
bag@@	26
fahrzeu@@	26
schmi@@	26
gent	26
kno@@	26
marathon@@	26
dig@@	26
decker	26
stricken	26
spann@@	26
nummern	26
dal@@	26
collie	26
ton	26
kug@@	26
ks@@	26
wen	26
visi@@	26
smartphone	26
jug@@	26
ley@@	26
heit	26
denk@@	26
tie@@	26
strum@@	26
fran@@	26
geschir@@	26
oran@@	26
iler	26
schei@@	26
tig@@	26
gestreif@@	26
süd@@	26
gemuster@@	26
richt	25
hrt	25
pack	25
einsat@@	25
mop@@	25
ys	25
tuba	25
dun@@	25
prä@@	25
comi@@	25
tran@@	25
sw@@	25
pyra@@	25
the@@	25
skel@@	25
ale	25
schnau@@	25
ssiert	25
orche@@	25
tive	25
rän@@	25
schr@@	25
micro@@	25
tun@@	25
kie@@	25
ate@@	25
wän@@	25
bie	25
finder	25
chi@@	25
jack	25
geschmink@@	25
padd@@	25
gitarren@@	25
bbelt	25
verschne@@	25
spazier@@	25
chin@@	25
hebe@@	25
op	25
hot@@	25
mmer@@	25
köpfi@@	25
kontrol@@	24
steil@@	24
repar@@	24
burger	24
storte	24
pizzeria	24
caf@@	24
nam@@	24
fluss@@	24
rou@@	24
pfan@@	24
poli@@	24
wild	24
:	24
wind	24
song	24
sc@@	24
stür	24
une	24
asphal@@	24
gam@@	24
jam@@	24
ley	24
beschn@@	24
strü@@	24
ing	24
ment	24
lama	24
gewä@@	24
band@@	24
nah@@	24
zogen	24
hula-@@	24
fa	24
lei	24
food	24
hunderen@@	24
olympi@@	24
bs	24
sari	24
alo@@	24
milit@@	24
terrier	24
well@@	24
sil@@	24
schneebedeck@@	24
räder	24
gold	24
sse@@	24
fernseh@@	24
cockpit	24
afrikan@@	24
pfe	24
york	24
modi@@	24
balk@@	24
befin@@	24
tten@@	24
gepunk@@	24
tea@@	24
demonstra@@	24
bord@@	24
gemä@@	23
kreu@@	23
pra@@	23
präsen@@	23
obdachlo@@	23
gepfla@@	23
dro@@	23
ferin	23
düne	23
dreadlocks	23
gli@@	23
uti@@	23
sprint	23
blö@@	23
golden	23
pul@@	23
sof@@	23
ponch@@	23
fant	23
versu@@	23
dinosau@@	23
air	23
ir	23
ammer	23
strau@@	23
hre@@	23
tin@@	23
footballer	23
trib@@	23
rose	23
maul@@	23
lok@@	23
ller	23
clowns	23
sammlung	23
zeige@@	23
öpfen	23
amp@@	23
is@@	23
mobi@@	23
blond@@	23
til@@	23
pick@@	23
those	23
ütze	23
vie@@	22
tromm@@	22
krä@@	22
synchro@@	22
stin	22
text	22
radio	22
gn@@	22
flö@@	22
ou@@	22
stru@@	22
ham@@	22
intere@@	22
gefü@@	22
pony	22
hüpf@@	22
bunden	22
ore	22
wass@@	22
kilt	22
flyer	22
age	22
notebooks	22
schlauch@@	22
u-@@	22
fontän@@	22
8@@	22
schlit@@	22
disco	22
grass	22
bowling@@	22
christ@@	22
schmetter@@	22
volley@@	22
bend	22
stil@@	22
ps@@	22
wrestler	22
studen@@	22
jockey	22
dor@@	22
9@@	22
tage	22
berü@@	22
betra@@	22
haarige	22
vase	22
rest@@	22
flä@@	22
mask@@	21
robo@@	21
zün@@	21
arbe@@	21
stal@@	21
fabri@@	21
pfer	21
bon@@	21
sprit@@	21
il	21
rig	21
gekleide@@	21
ep@@	21
kamel@@	21
zei	21
medi@@	21
fast@@	21
schal@@	21
ee	21
kies	21
öffent@@	21
open	21
jugend@@	21
ce	21
ambo@@	21
telefonier@@	21
fotografi@@	21
rücke	21
trainings@@	21
wakeboard	21
zom@@	21
einkaufsta@@	21
zerin	21
hmen	21
lit@@	21
mop	21
num@@	21
chine@@	21
mannscha@@	21
gon@@	21
film@@	21
watte	21
wachsen@@	21
selbst@@	21
last@@	21
gren@@	21
gallo@@	21
hil@@	20
poster	20
keiten	20
kul@@	20
ffel@@	20
kart	20
artist	20
silhouette	20
tal@@	20
flan@@	20
cre@@	20
lied	20
buddhi@@	20
kal@@	20
sklei@@	20
bat	20
zahl@@	20
ameri@@	20
our	20
tee	20
organ@@	20
radre@@	20
monument	20
ty	20
glit@@	20
aro@@	20
stuhl@@	20
pfel	20
gehän@@	20
bull@@	20
sauna	20
oranges	20
erin@@	20
ballerina	20
gleich@@	20
let	20
gent@@	20
ärz@@	20
karuss@@	20
ls	20
car@@	20
ges@@	20
staub@@	20
boy	20
lion	20
drink	20
appar@@	20
london	20
tomat@@	20
heit@@	20
7@@	20
base@@	20
ble@@	20
eg@@	20
brunn@@	20
mixer	19
inter@@	19
ation	19
pier@@	19
gum@@	19
pfo@@	19
mikrof@@	19
anti@@	19
shop	19
schütt@@	19
smit@@	19
xen	19
sweatshirt	19
badeh@@	19
long@@	19
salon	19
gy@@	19
robe	19
warm	19
sombrer@@	19
schran@@	19
probi@@	19
tack@@	19
zuschau@@	19
hawai@@	19
meter	19
rüstung	19
ssion	19
zeit	19
eil	19
dfahrer	19
bmx@@	19
oper@@	19
bikinis	19
chts@@	19
cho@@	19
stor@@	19
stun@@	19
sine	19
pipe	19
beach@@	19
sern	19
tho@@	19
vil@@	19
worfen	19
pfe@@	19
press@@	19
volks@@	19
chips	19
rug	19
sar@@	19
bes	19
ll	19
ty@@	19
körper@@	19
kör@@	19
schub@@	18
rik@@	18
kum	18
moun@@	18
ard	18
mern	18
drah@@	18
segway	18
sili@@	18
ci@@	18
cross	18
bir@@	18
tail	18
free@@	18
sonni@@	18
sters	18
glü@@	18
ad	18
scooter	18
geg@@	18
män@@	18
gelassen	18
punk@@	18
kopfbedeck@@	18
chts	18
hub@@	18
grö@@	18
sexy	18
klat@@	18
geburtsta@@	18
blum@@	18
führ@@	18
6@@	18
bäum@@	18
wehr@@	18
red	18
digit@@	18
elektri@@	18
refle@@	18
lar	18
hrend	18
atten@@	18
sou@@	18
stall	17
chinese	17
sterten	17
ckel	17
eller	17
ag@@	17
steiner@@	17
bürger@@	17
val	17
overalls	17
bmx-@@	17
ron@@	17
9	17
weibli@@	17
diskuti@@	17
demonstri@@	17
horn	17
cou@@	17
badmin@@	17
bigen	17
blas@@	17
ders	17
etw@@	17
zz@@	17
hor@@	17
oldti@@	17
alter@@	17
profession@@	17
itet	17
here	17
mol@@	17
bikes	17
brau@@	17
va@@	17
masch@@	17
stock@@	17
gir@@	17
onal	17
china	17
tank@@	17
coca	17
photo@@	17
itt	17
smal@@	17
experi@@	17
lly	17
send	17
br@@	17
ge-@@	17
rollerbla@@	16
dunkl@@	16
beschäf@@	16
töpf@@	16
arre	16
eingan@@	16
om	16
erklär@@	16
mechani@@	16
öh@@	16
ora@@	16
magaz@@	16
fotogra@@	16
polizi@@	16
gestrei@@	16
cont@@	16
fau@@	16
adi@@	16
chemi@@	16
briti@@	16
cket@@	16
res	16
ine@@	16
hne	16
ops	16
err@@	16
einsam	16
wagg@@	16
hänger	16
skop	16
snack	16
city	16
kün@@	16
verkleide@@	16
stati@@	16
spani@@	16
umten	16
pullo@@	16
seit@@	16
pum@@	16
smar@@	16
saxoph@@	16
industri@@	16
cur@@	16
graffiti@@	16
transport@@	16
mierten	16
pants	16
center	16
of@@	16
pri@@	16
tops	16
gers	16
metal@@	16
hür@@	16
!	16
bare	16
jumper	16
af@@	15
rea@@	15
verkäu@@	15
tender	15
peace	15
hung	15
drum	15
restauran@@	15
later@@	15
meer@@	15
transpar@@	15
pil@@	15
cro@@	15
sturz@@	15
besch@@	15
air@@	15
grand	15
gegn@@	15
schein	15
dy	15
kamera@@	15
irgen@@	15
seg@@	15
kimonos	15
diti@@	15
hol	15
van	15
contain@@	15
leben@@	15
ulp@@	15
breakdancer	15
niedri@@	15
nor@@	15
instal@@	15
ih@@	15
hoo@@	15
pfi@@	15
dies	15
zimm@@	15
ctor@@	15
son	15
ffe@@	15
schnit@@	15
staubsau@@	15
risti@@	15
lass@@	15
hoodie	15
schiedsri@@	15
cha@@	15
glatzköpfi@@	15
stadium	15
lift	15
asi@@	15
10	15
outfits	15
abteil	15
wim@@	14
nati@@	14
sha@@	14
auen	14
käfi@@	14
mari@@	14
perfor@@	14
mime	14
boards	14
hat@@	14
mini-@@	14
gerei@@	14
tour	14
karier@@	14
brett@@	14
lock	14
barri@@	14
stem	14
belt	14
ika	14
fir@@	14
gelb@@	14
führung	14
van@@	14
bal	14
matra@@	14
u-bahn-@@	14
tattoos	14
graph@@	14
?	14
zebra@@	14
performance	14
lager@@	14
gür@@	14
gat@@	14
bask@@	14
orn@@	14
stirn@@	14
atta@@	14
akkorde@@	14
shop@@	14
erleuch@@	14
hot	14
mul@@	14
table@@	14
upper@@	14
bou@@	14
eli@@	14
fon@@	14
muse@@	14
camera	14
blüm@@	14
steig	14
cel@@	14
enti@@	14
mcdonal@@	13
kick	13
;	13
bst	13
bum@@	13
web@@	13
pli@@	13
photo	13
mahl@@	13
käpp@@	13
dir@@	13
post@@	13
feln	13
posi@@	13
bräu@@	13
machine	13
ü	13
sign@@	13
tote	13
tourist	13
repor@@	13
shi@@	13
ering	13
tv	13
sänger@@	13
spat@@	13
läch@@	13
pickni@@	13
star	13
tee@@	13
beg@@	13
pump@@	13
beoba@@	13
gewehr@@	13
obama	13
ländi@@	13
elefan@@	13
räu@@	13
emp@@	13
pinata	13
rollerskates	13
metalli@@	13
bz@@	13
é@@	13
la	13
soft@@	13
dion	13
glider	13
cow@@	13
sandwich	13
kt@@	13
eds	13
drum@@	13
twagen	13
material	13
dol@@	13
ärmel@@	13
altung	13
wr@@	13
mmel	13
elegan@@	13
team@@	13
balan@@	13
wagen@@	13
ami@@	13
squ@@	13
grafit@@	13
dur@@	13
fotograph@@	13
pfei@@	13
are@@	13
uniform@@	13
apparat	13
floh@@	12
ly@@	12
for	12
rafting	12
shir@@	12
toast	12
ängt	12
mick@@	12
ey@@	12
mobil@@	12
ther@@	12
cape	12
corn@@	12
bridge	12
ion	12
konstru@@	12
seifen@@	12
taxis	12
open-@@	12
nch@@	12
benu@@	12
älter	12
sts	12
headset	12
tol@@	12
fl@@	12
religi@@	12
ure	12
lehr@@	12
she@@	12
ot	12
häu@@	12
swimming@@	12
blan@@	12
waff@@	12
geträn@@	12
süßig@@	12
halter	12
wischen	12
hop@@	12
spider@@	12
ns	12
jo	12
rubber	12
go-@@	12
bert	12
pull@@	12
crossfahrer	12
euro@@	12
cks	12
up@@	12
dog	12
snowboar@@	12
perü@@	12
popcorn	12
of	12
bies	12
ate	12
telefonz@@	12
display	12
fahrra@@	12
symbol	12
fitne@@	12
verschie@@	12
raft	12
smauer	12
yoga	12
asiati@@	12
ite@@	12
gebung	12
bäu@@	12
assi@@	12
cor@@	12
balle@@	12
item	12
pat@@	12
sle@@	12
sigen	11
wh@@	11
stunts	11
hem@@	11
hum@@	11
portra@@	11
guit@@	11
kaffe@@	11
lun@@	11
perform@@	11
heels	11
häuti@@	11
phin	11
sever@@	11
cs	11
part@@	11
itali@@	11
rosaro@@	11
dober@@	11
fit	11
yer	11
plü@@	11
chin	11
ce-@@	11
mountain	11
entra@@	11
bull	11
sty@@	11
spaar	11
skates	11
schir@@	11
kut@@	11
king	11
geschlo@@	11
hy@@	11
gesell@@	11
badminton	11
last	11
oni@@	11
subway	11
twister	11
street@@	11
hölzer@@	11
in-@@	11
enth@@	11
offi@@	11
kof@@	11
big	11
zäh@@	11
ade	11
le-@@	11
ument	11
schme@@	11
begin@@	11
schrif@@	11
fallschirm@@	11
ings	11
wake@@	11
eit@@	11
deckten	11
pon@@	11
riesi@@	11
pfla@@	11
gor@@	11
lächel@@	11
elegant	11
überda@@	11
zy@@	11
pop@@	11
don@@	11
lips	11
pur@@	11
smittel	11
ussion	11
ringt	11
keeper	11
fs	11
free	11
inner@@	11
ya@@	11
arige	11
lin	11
süß@@	11
tierten	11
flüssig@@	11
schat@@	11
ara@@	11
way	11
gan	10
car	10
trei@@	10
flei@@	10
prin@@	10
shor@@	10
teddy	10
ehnt	10
billi@@	10
ding	10
dum@@	10
ehe@@	10
ppi@@	10
the	10
foo@@	10
ues	10
ach	10
gate	10
wagon	10
extre@@	10
use	10
walk@@	10
ble	10
ford	10
verti@@	10
bunge@@	10
pass	10
ärchen	10
sla@@	10
anst@@	10
ey	10
inten@@	10
puzz@@	10
gemäl@@	10
wall	10
pub	10
oping	10
shooting	10
paint@@	10
shel@@	10
hit@@	10
ve	10
tat@@	10
th	10
body	10
stad@@	10
hänge@@	10
legg@@	10
beleb@@	10
portrait	10
fussg@@	10
mex@@	10
mädch@@	10
zählt	10
domin@@	10
renen	10
tails	10
post	10
bchen	10
kaja@@	10
rela@@	10
des@@	10
unge	10
player	10
aren@@	10
zerinnen	10
erkl@@	10
foot@@	10
sy@@	10
flip	10
_	10
if	9
aun	9
ssig@@	9
q@@	9
lein@@	9
chil@@	9
togra@@	9
fami@@	9
them@@	9
od@@	9
emon@@	9
ipe	9
view	9
fron@@	9
irt	9
restau@@	9
bewerb	9
skier	9
ev@@	9
schotten@@	9
ong	9
tab@@	9
schaufen@@	9
w-@@	9
stud@@	9
terminal	9
shal@@	9
nachdenk@@	9
live	9
gar	9
nel	9
olo@@	9
sonne@@	9
eins@@	9
riksch@@	9
dance	9
ness	9
bulldo@@	9
cham@@	9
bergstei@@	9
eien@@	9
fetti	9
dom	9
bron@@	9
play@@	9
gebä@@	9
gewän@@	9
sko@@	9
patro@@	9
fix@@	9
leimer	9
co	9
experiment	9
2012	9
trol@@	9
tank	9
agen	9
sh	9
veranst@@	9
ballet	9
umhänge@@	9
high@@	9
schan@@	9
afri@@	9
mmel@@	9
demonstr@@	9
males	9
ffelt	9
schäfer@@	9
mix@@	9
ga	9
stchen	9
seifenbla@@	9
20@@	9
passen@@	9
lar@@	9
u.@@	9
veter@@	9
dresses	9
dess@@	8
sky	8
design	8
universit@@	8
erho@@	8
aid	8
as@@	8
instrum@@	8
lers	8
lla	8
sex@@	8
door@@	8
eisk@@	8
sta	8
ballo@@	8
provi@@	8
open@@	8
drin@@	8
horizon@@	8
zoo	8
war	8
teen@@	8
o-@@	8
ina	8
spongebo@@	8
ption	8
casino	8
mäher	8
rotha@@	8
cheerleaders	8
ater	8
batman	8
miami	8
ame	8
vit@@	8
won@@	8
fit@@	8
dunk	8
street	8
americ@@	8
lige	8
swimming	8
softball	8
akkor@@	8
tube	8
loko@@	8
sonn@@	8
osen	8
kite	8
ämmer@@	8
patri@@	8
sweat@@	8
dock	8
jet	8
sai@@	8
amerikani@@	8
brun@@	8
fur@@	8
ta	8
sne@@	8
ballerinas	8
eishock@@	8
fet@@	8
mon	8
ambulan@@	8
event	8
s.	8
snacks	8
photogra@@	8
tem@@	8
neh@@	8
look	8
irs	8
bung	8
parallel	8
lon@@	8
ha	8
kanu@@	8
list	8
tax@@	8
sneakers	8
bast@@	8
brand@@	8
children	7
drinks	7
schrauber	7
turni@@	7
gos	7
canyon	7
monster	7
sseln	7
by	7
pitcher	7
vortra@@	7
ump@@	7
lobby	7
escheibe	7
symbo@@	7
coat	7
archite@@	7
logo	7
tle	7
wheelie	7
dt	7
tatto@@	7
umarm@@	7
meeting	7
cat@@	7
trän@@	7
partner	7
bm@@	7
lacrosse	7
racket	7
ysi@@	7
rett@@	7
&amp;	7
walking	7
stron@@	7
lade@@	7
dia@@	7
clo@@	7
trun@@	7
bewe@@	7
ups	7
tan	7
on-@@	7
mcdonald	7
bucks	7
can@@	7
dor	7
auft	7
zes	7
superman	7
schneider@@	7
latz@@	7
shu@@	7
sub@@	7
quarterback	7
jenga	7
kee@@	7
plo@@	7
champag@@	7
wrest@@	7
model	7
orama	7
smoking	7
spiderman	7
silhou@@	7
lou@@	7
elek@@	7
überqu@@	7
girl	7
aben@@	7
jogging	7
under	7
mic	7
hugs	7
beschä@@	7
head@@	7
agi@@	7
skostü@@	7
auß@@	7
pes	7
break@@	7
caps	7
othek	7
sion	7
spo@@	7
retriever	7
out@@	7
eich	7
plasti@@	7
terra@@	7
twir@@	7
elemen@@	7
halm	7
fack@@	7
aufgerei@@	7
schür@@	7
leggings	7
hals@@	7
mir@@	7
unzäh@@	7
eling	7
-up	7
kurzarm@@	7
musikan@@	7
col@@	7
sonnenunter@@	6
spr@@	6
wood@@	6
fan	6
zentrum	6
high	6
our@@	6
oon	6
ong@@	6
hallo@@	6
schauf@@	6
uniformier@@	6
tie	6
yo@@	6
pl@@	6
sco@@	6
beach	6
green@@	6
pea@@	6
wasserstra@@	6
body@@	6
mers	6
too	6
seitig	6
cafe@@	6
rer@@	6
win	6
wrestling	6
out	6
bst@@	6
line	6
tour@@	6
torwar@@	6
indoor	6
harmon@@	6
hotdog	6
ands	6
tower	6
business@@	6
glass	6
army	6
ba	6
sus	6
sak@@	6
pau@@	6
cu@@	6
security	6
kal	6
cal@@	6
korpul@@	6
monopol@@	6
tutu	6
ping@@	6
ght@@	6
strüm@@	6
sno@@	6
nahme	6
kay@@	6
world	6
grills	6
samm@@	6
amer@@	6
rest	6
possi@@	6
foli@@	6
gebäu@@	6
boo@@	6
medit@@	6
ausgebre@@	6
gas	6
abo@@	6
sportan@@	6
stin@@	6
festi@@	6
ic	6
peace@@	6
mön@@	6
spen@@	6
wood	6
aquari@@	6
straß@@	6
schlagzeug@@	6
neopren@@	6
ffer@@	6
moment	6
ways	6
dweg	6
que	6
tropi@@	6
half@@	6
karu@@	6
kleidet	6
bati@@	6
gemu@@	6
mobile	5
cing	5
redner@@	5
$	5
chan@@	5
flip-flops	5
my	5
ils	5
not	5
ility	5
erd	5
jogg@@	5
p-@@	5
ros@@	5
skies	5
mark	5
laun@@	5
surfing	5
paus@@	5
climber	5
chef	5
gie	5
balls	5
läufer@@	5
sing	5
bea@@	5
clu@@	5
sem@@	5
thre@@	5
rai@@	5
bungee	5
ka-@@	5
trampoline	5
steam	5
goof@@	5
asiat@@	5
haut@@	5
nun	5
climbing	5
begrün@@	5
mouse	5
water@@	5
cup@@	5
spee@@	5
shake	5
giert	5
täto@@	5
mall	5
lichkeit	5
stop	5
bak@@	5
änger@@	5
wash@@	5
ous	5
eit	5
gehü@@	5
dau@@	5
mod@@	5
cket	5
butter@@	5
twi@@	5
unifor@@	5
ihr@@	5
saun@@	5
sell	5
trampol@@	5
kajak@@	5
theat@@	5
11	5
sna@@	5
quar@@	5
con@@	5
equipment	5
schlau@@	5
lap@@	5
modern	5
kio@@	5
höl@@	5
cra@@	5
arch@@	5
trin@@	5
ator	5
auss@@	5
fie	5
metro	5
mini	5
entri@@	5
over@@	5
set	5
leader	5
publi@@	5
drummer	5
12	5
marath@@	5
outdo@@	5
teen	5
camping	5
scat@@	5
sur	5
wra@@	5
wegs	5
dunk@@	5
bulldozer	5
bewer@@	5
ates	5
enter	5
off@@	5
vent@@	5
&@@	5
kleide@@	5
gebil@@	5
graff@@	5
pho@@	5
pie@@	5
podi@@	5
ose	5
sca@@	5
zo@@	5
gebi@@	5
skate	5
board@@	5
xi@@	5
ballerin@@	5
spon@@	5
materi@@	5
gebildet	5
andschaft	5
dit@@	5
konz@@	5
schwan@@	5
pian@@	5
ore@@	5
reiche	5
schnur@@	5
w.	5
mals	5
ities	5
stands	4
thro@@	4
rings	4
ym@@	4
information	4
wine	4
sports	4
kitchen	4
kämp@@	4
gliding	4
inc@@	4
same	4
gesprä@@	4
mat	4
ca	4
wer	4
babies	4
computers	4
scra@@	4
thalle	4
ams	4
bby	4
guitar	4
rs	4
ld	4
tzeichen	4
sky@@	4
attra@@	4
konzentri@@	4
alle@@	4
pfa@@	4
down@@	4
hill@@	4
bikin@@	4
stadi@@	4
ama@@	4
grou@@	4
vegetation	4
lings	4
mur@@	4
half-@@	4
bike@@	4
char@@	4
boar@@	4
ual	4
ö	4
ping-@@	4
music	4
pan	4
pod	4
regi@@	4
video	4
lie	4
cit@@	4
boys	4
ree	4
ticket	4
polit@@	4
metal	4
ese	4
gin@@	4
but@@	4
derby	4
chers	4
maschin@@	4
cour@@	4
falls	4
bad@@	4
trucks	4
promen@@	4
wehr	4
santa	4
entfer@@	4
jan@@	4
stung	4
präs@@	4
ckets	4
scoo@@	4
smi@@	4
zur@@	4
tüm@@	4
ice	4
mag@@	4
neop@@	4
schirmm@@	4
quarter@@	4
ies	4
screen	4
saxophone	4
pole	4
ro	4
old@@	4
kers	4
pres@@	4
arri@@	4
mand	4
peri@@	4
sticks	4
kap@@	4
ult	4
ath@@	4
ko	4
crew	4
ak	4
tram@@	4
histor@@	4
piano	4
sad@@	4
british	4
performan@@	4
dding	4
cakes	4
pick	4
aufs@@	4
tons	4
square	4
ppel@@	4
ol	4
sive	4
ear@@	4
kil@@	4
koffer@@	4
gymna@@	4
teena@@	4
frise@@	4
blin@@	4
terrain	4
circu@@	4
nit@@	4
gewäss@@	4
hinder@@	4
suv	4
tro	4
pers	4
violin@@	3
coo@@	3
teaching	3
note@@	3
dy@@	3
candy	3
shops	3
ligh@@	3
first	3
expre@@	3
acce@@	3
school	3
keep	3
clear	3
white@@	3
camouflage	3
camp	3
demon@@	3
lets	3
jock@@	3
dent	3
ffee	3
gle	3
achter@@	3
asse	3
rick@@	3
ging	3
mach	3
unta@@	3
cri@@	3
ferlicht	3
wn	3
tell@@	3
lounge	3
thek	3
deo	3
kontra@@	3
eth	3
ded	3
victory	3
mas	3
dinner	3
gaz@@	3
wing	3
ct@@	3
deer	3
bul@@	3
ata	3
bracht	3
refer@@	3
lea@@	3
concert	3
smon@@	3
lies	3
gall@@	3
termin@@	3
downtown	3
ea@@	3
trolley	3
pop	3
sk	3
becken@@	3
own	3
listen	3
phone	3
bene@@	3
geschmin@@	3
seeing	3
store	3
shock@@	3
pin	3
girls	3
q	3
bra	3
relax@@	3
low	3
tigam	3
ausgebreite@@	3
figu@@	3
beer	3
you	3
scre@@	3
ica	3
power	3
white	3
can	3
highway	3
shirt@@	3
no	3
grab	3
blazer	3
ima@@	3
drau@@	3
schut@@	3
kayaks	3
drib@@	3
slo@@	3
outdoor	3
stret@@	3
cheerlea@@	3
ehr	3
patient	3
thei@@	3
track@@	3
lone	3
tent	3
navy	3
blond-@@	3
zent@@	3
bäuch@@	3
hydrant	3
enter@@	3
dogs	3
sax@@	3
bers	3
cru@@	3
home@@	3
coa@@	3
roo@@	3
elabo@@	3
colle@@	3
style	3
book	3
rally	3
od	3
but	3
schneel@@	3
é	3
ado@@	3
komple@@	3
barbecue	3
get	3
public	3
viewing	3
gun	3
cer	3
parka	3
asp@@	3
blue	3
zz	3
police	3
spray	3
ac@@	3
test	3
ihre@@	3
kie	3
cup	3
identi@@	3
drums	3
weihn@@	3
ax@@	3
him	3
ners	3
jersey	3
dge	3
triko@@	3
deren@@	3
bran@@	3
gepä@@	3
fun	3
sleeve	3
green	3
motten	3
jum@@	3
from	3
reception	3
kopfhör@@	3
make@@	3
,@@	3
hotdogs	3
plate	3
ly	3
kayak	3
life@@	3
stick	3
toy	3
+	3
gesti@@	3
letter@@	3
crou@@	3
positi@@	3
oph@@	3
dio	3
painting	3
one@@	3
zierten	3
black@@	3
boots	3
rollerblader	3
power@@	3
casin@@	3
court	3
synch@@	3
brö@@	3
camoufla@@	3
ines	2
job	2
flag@@	2
barbe@@	2
mül@@	2
scu@@	2
presen@@	2
don	2
vin@@	2
spots	2
jer@@	2
fts	2
boogie	2
skating	2
shopping	2
zet@@	2
market	2
ami	2
red-@@	2
ise	2
day@@	2
peer	2
opening	2
cafeteria	2
jumping	2
track	2
knitting	2
catcher	2
basket	2
guide	2
stack@@	2
figh@@	2
color	2
tions	2
leaders	2
day	2
pic@@	2
colo@@	2
kin	2
fußg@@	2
itor	2
halloween	2
bars	2
dancer	2
ny@@	2
sym@@	2
blasin@@	2
instru@@	2
print	2
tzköpfi@@	2
ath	2
pad	2
ats	2
ñ@@	2
sparks	2
met	2
vie	2
runner	2
naked	2
hoh@@	2
ations	2
money	2
routine	2
ity	2
arts	2
deli@@	2
ars	2
ic@@	2
coffee	2
boarding	2
dancing	2
side@@	2
alls	2
ture	2
lter@@	2
maten	2
pong	2
phones	2
skateboarding	2
sea	2
annt	2
male	2
workout	2
bling	2
trom@@	2
lands	2
gy	2
slam	2
#	2
j	2
kuli@@	2
sprä@@	2
ties	2
wrestlers	2
oc@@	2
bin	2
high-@@	2
woo@@	2
mo	2
bab@@	2
love	2
story	2
bage	2
adju@@	2
scar@@	2
crow@@	2
tic	2
ct	2
craft	2
contra@@	2
ssage	2
diving	2
wet@@	2
ance	2
wheel@@	2
that	2
shoul@@	2
come	2
mc@@	2
cau@@	2
half	2
visible	2
singer	2
garden	2
motive	2
woman	2
claus	2
fish	2
lake	2
screaming	2
erial	2
port	2
bush	2
rine	2
ting	2
dos	2
gungen	2
lap	2
shepherd	2
gates	2
sandwi@@	2
cheer@@	2
hall@@	2
photos	2
pag@@	2
vers	2
ettes	2
key	2
cle	2
weihna@@	2
rocks	2
university	2
smo@@	2
arran@@	2
ish	2
shoot	2
werker	2
skaters	2
boy@@	2
guitar@@	2
times	2
help	2
fight	2
donal@@	2
instruments	2
farm	2
word	2
cli@@	2
posing	2
ppy	2
ors	2
student	2
iro@@	2
skis	2
led	2
lug@@	2
pony@@	2
entation	2
row	2
shin@@	2
light	2
hangs	2
runn@@	2
surf	2
downhill	2
urban	2
üne	2
night	2
list@@	2
sammen	2
obsta@@	2
ket	2
pad@@	2
prie@@	2
teens	2
batter	2
pupp@@	2
tables	2
game	2
apple	2
only	2
cle@@	2
bub@@	2
with	2
cream	2
protest	2
separ@@	2
ney	2
nament	2
ú@@	2
ffs	2
whi@@	2
cart	2
grinding	2
spot@@	2
work@@	2
chal@@	2
tain	2
machin@@	2
gestel@@	2
ass@@	2
abendd@@	2
ols	2
hall	2
blocks	2
cars	1
wn@@	1
book@@	1
kayaker	1
human	1
held	1
cano@@	1
anda	1
beanie	1
marschi@@	1
bag	1
outf@@	1
bushal@@	1
biking	1
ef@@	1
pulling	1
paint	1
mohawk	1
birth@@	1
ow	1
ppies	1
secur@@	1
factory	1
sculp@@	1
unds	1
spotlight	1
cake	1
rod	1
navi@@	1
kets	1
applau@@	1
walk	1
bow	1
picker	1
dou@@	1
bit	1
varie@@	1
fish@@	1
summer	1
series	1
lly@@	1
vio@@	1
foot	1
ppers	1
heavy	1
supp@@	1
walmart	1
rug@@	1
than	1
billar@@	1
enterta@@	1
sear@@	1
ees	1
card	1
scen@@	1
raz@@	1
least	1
sausa@@	1
hispani@@	1
sks	1
ämmerung	1
ddy	1
com@@	1
worker	1
martial	1
lab	1
motion	1
mom	1
log	1
vil	1
asian	1
häus@@	1
military	1
scottish	1
makeup	1
troph@@	1
chu@@	1
atm	1
swin@@	1
seri@@	1
smart@@	1
swimm@@	1
reli@@	1
cap@@	1
vergn@@	1
most@@	1
fly	1
boat	1
stream	1
ramp	1
athlete	1
disc@@	1
rickshaw	1
still	1
tensili@@	1
range	1
got	1
ä	1
tar	1
gon	1
ves	1
sri@@	1
bay	1
fig@@	1
stal	1
sponso@@	1
ining	1
seen	1
helicop@@	1
ny	1
profe@@	1
run	1
next	1
checked	1
ments	1
booth	1
fist	1
stretching	1
jump	1
§	1
ple	1
tation	1
workers	1
camer@@	1
hause@@	1
beguta@@	1
mikr@@	1
monop@@	1
elephant	1
buil@@	1
also	1
eiskun@@	1
turn	1
oring	1
lling	1
step	1
paddles	1
tting	1
stars	1
aqu@@	1
shakes	1
toward	1
lows	1
wiel@@	1
sort	1
cy	1
dire@@	1
off	1
race	1
ek	1
vari@@	1
repair@@	1
vintage	1
ming	1
ping	1
wife	1
gymnast	1
cell@@	1
fett@@	1
swim@@	1
ous@@	1
deep	1
nic	1
house	1
conference	1
tags	1
heav@@	1
avo@@	1
wash	1
talks	1
iz@@	1
dot	1
special	1
erwachsen@@	1
oba@@	1
hit	1
id	1
guta@@	1
collar	1
enga@@	1
jerseys	1
sian	1
backs	1
balloons	1
kuliert	1
cer@@	1
books	1
rate	1
check	1
dest	1
tracks	1
drag	1
racer	1
ets	1
kings	1
ban	1
arch	1
appe@@	1
entali@@	1
toge@@	1
group	1
roun@@	1
rist	1
amu@@	1
gym@@	1
intervie@@	1
wet	1
pig	1
pins	1
smoo@@	1
ple@@	1
cool	1
small	1
too@@	1
can-@@	1
gentle@@	1
dis@@	1
counter	1
photographers	1
ators	1
gun@@	1
cool@@	1
dering	1
workshop	1
soccer	1
enthusia@@	1
call	1
less	1
ning	1
make	1
bowler	1
sprinkler	1
ged	1
carts	1
musikin@@	1
linder	1
french	1
parkan@@	1
train	1
rides	1
tile	1
snow	1
child	1
soldier	1
whe@@	1
venue	1
hospital	1
floating	1
holding	1
designs	1
stuck	1
mple@@	1
ia	1
pow@@	1
toi@@	1
retrie@@	1
national	1
gallery	1
school@@	1
country	1
boul@@	1
fied	1
ole	1
string	1
veh@@	1
pping	1
senior	1
neon	1
marching	1
thin@@	1
terri@@	1
part	1
keys	1
vege@@	1
home	1
guard	1
gleichze@@	1
rolling	1
stones	1
who	1
khaki	1
gging	1
paddling	1
life	1
face	1
bikers	1
rescue	1
object	1
í@@	1
geburt@@	1
sale	1
ill	1
ride	1
dad	1
aders	1
fair@@	1
watch	1
main	1
cigar	1
company	1
wimm@@	1
under@@	1
lum@@	1
smontur	1
ire	1
tech@@	1
dolls	1
gentlemen	1
lady	1
older	1
ouse	1
cleaner	1
pet	1
supermarket	1
geschnal@@	1
bles	1
offern	1
bowl	1
jeng@@	1
ond	1
down	1
poin@@	1
ward	1
haw@@	1
auditorium	1
musical	1
sweaters	1
repa@@	1
elmo	1
sharp	1
containers	1
like	1
ian	1
inspe@@	1
fix	1
site	1
gh	1
trailer	1
exer@@	1
entran@@	1
picks	1
traffic	1
pigtails	1
ange	1
broken	1
short-@@	1
patter@@	1
neck@@	1
department	1
bouquet	1
other	1
people	1
photographs	1
card@@	1
john	1
circle	1
eleph@@	1
testelle	1
sine@@	1
microphone	1
ckens	1
holi@@	1
pee@@	1
brown	1
caution	1
good	1
finish	1
á@@	1
name	1
dune	1
zzy	1
brass	1
parking	1
zusam@@	1
mail@@	1
stretch	1
locks	1
eingeschla@@	1
scout	1
river@@	1
cany@@	1
stir@@	1
iss@@	1
tzaun	1
cage	1
colli@@	1
coun@@	1
office	1
snea@@	1
uts	1
serve	1
weils	1
spinning	1
inclu@@	1
touri@@	1
guns	1
made	1
may@@	1
eye	1
tzei@@	1
deli	1
science	1
area	1
qui@@	1
traditi@@	1
brunette	1
these	1
coaster	1
tea	1
chocolate	1
ving	1
row@@	1
mid	1
choco@@	1
temple	1
peach	1
fore@@	1
ear	1
order	1
ears	1
var@@	1
fiel@@	1
mida@@	1
cigarette	1
pull	1
place	1
barre@@	1
wasserfontän@@	1
ants	1
space	1
dle	1
aring	1
surfers	1
pads	1
games	1
back	1
labora@@	1
sty	1
diver	1
divers	1
exam@@	1
roll	1
hur@@	1
towar@@	1
sold@@	1
ating	1
ympi@@	1
