<PAD>	1000000000
<UNK>	1000000000
<S>	1000000000
</S>	1000000000
a	248821
.	138031
in	76615
the	57292
on	42030
and	40441
man	39204
is	37760
of	35584
with	33169
,	23199
woman	20316
two	19598
are	18480
to	16156
people	15899
at	15019
an	14942
wearing	14323
young	12023
white	12010
shirt	11978
black	11189
while	10751
his	10482
blue	10348
red	9272
men	8826
sitting	8782
girl	8687
boy	8435
standing	8274
dog	8210
playing	7881
street	7294
group	7232
down	7098
front	6992
her	6791
walking	6766
holding	6325
one	5925
water	5397
by	5271
three	5224
women	4900
green	4799
up	4783
as	4710
looking	4669
child	4602
for	4487
large	4366
little	4293
outside	4272
yellow	4139
person	4068
brown	4021
children	3997
through	3957
from	3722
their	3702
hat	3697
other	3601
ball	3595
next	3447
small	3442
into	3383
over	3359
out	3280
some	3261
dressed	3220
building	3070
running	3056
jacket	3050
another	3042
riding	3024
around	2906
orange	2833
field	2733
near	2720
crowd	2705
stands	2667
beach	2626
background	2614
behind	2613
pink	2602
sidewalk	2573
table	2514
jumping	2407
sits	2386
grass	2355
girls	2335
that	2314
bike	2304
snow	2294
top	2289
looks	2272
air	2171
camera	2167
city	2157
stand	2134
wall	2132
asian	2130
older	2114
dogs	2104
player	2094
it	2065
&apos;s	2060
working	2046
has	2016
hair	2015
four	1998
dress	1990
off	1972
soccer	1943
something	1942
several	1938
gray	1921
talking	1907
lady	1886
pants	1877
park	1864
him	1861
shorts	1857
walks	1845
guitar	1829
picture	1805
boys	1797
hand	1795
jeans	1756
smiling	1740
plays	1732
along	1717
play	1708
game	1665
food	1662
side	1661
road	1644
car	1630
together	1629
carrying	1622
them	1607
bench	1594
holds	1591
walk	1571
&quot;	1570
old	1517
glasses	1516
baby	1511
there	1506
stage	1486
face	1478
head	1470
sit	1464
blond	1447
back	1422
bicycle	1422
hands	1400
taking	1394
watching	1382
pool	1378
couple	1371
male	1366
doing	1360
tree	1356
baseball	1351
ground	1350
rock	1342
guy	1341
each	1322
area	1318
who	1308
he	1301
day	1286
female	1282
boat	1276
dark	1274
suit	1267
race	1267
dirt	1265
being	1249
-@@	1248
striped	1245
room	1231
or	1229
performing	1227
construction	1225
coat	1220
look	1218
long	1206
t-shirt	1200
jumps	1193
many	1190
purple	1189
across	1182
mouth	1170
eating	1148
sunglasses	1147
band	1142
under	1141
its	1126
be	1121
football	1120
sign	1115
using	1110
horse	1092
reading	1083
runs	1078
kids	1074
ed	1070
re@@	1069
helmet	1055
microphone	1054
sand	1049
tennis	1048
watch	1041
players	1035
workers	1034
uniform	1033
work	1019
watches	1007
toy	1005
store	1001
basketball	991
all	980
wooden	967
train	966
cap	964
this	964
floor	962
rides	960
window	955
chair	955
against	954
a@@	953
ocean	951
during	950
elderly	949
dancing	944
about	943
mountain	943
bag	928
y	923
clothing	922
climbing	919
middle	917
team	913
busy	907
past	900
getting	899
waiting	897
shirts	889
having	885
outdoor	881
colorful	875
swimming	872
trees	871
restaurant	867
line	864
they	864
covered	851
light	851
posing	844
s	844
making	843
inside	842
singing	838
trying	828
five	825
very	824
e@@	823
ice	823
tan	813
es	805
fence	790
she	790
market	789
hats	783
skateboard	769
big	766
ride	761
c@@	758
cart	756
someone	754
brick	754
towards	746
sweater	744
ing	733
high	730
book	727
bright	725
motorcycle	723
cellphone	721
path	720
s@@	719
piece	718
beside	716
truck	710
colored	706
jump	704
surrounded	703
lake	701
kitchen	701
hill	699
open	698
outdoors	693
grassy	693
body	691
track	691
umbrella	689
clothes	688
vest	687
board	687
laying	687
arms	684
others	682
stick	680
river	678
bus	660
swing	660
i@@	656
night	653
p@@	649
tank	649
shopping	648
outfit	645
painting	640
worker	639
phone	636
house	632
uniforms	631
set	625
above	621
enjoying	621
di@@	616
event	616
hanging	612
snowy	611
stone	608
drinking	607
guys	606
ready	606
ts	604
paper	603
sleeping	602
music	597
right	596
toddler	595
ers	595
full	593
metal	592
hard	590
trick	590
run	590
o@@	588
shoes	582
bridge	581
de@@	579
like	579
adults	578
shop	578
in@@	576
away	573
arm	571
going	571
backpack	569
hockey	568
both	563
flowers	563
takes	563
wave	562
lot	561
what	559
pole	558
dance	558
gathered	556
family	555
o	553
kid	552
gear	551
rope	551
american	551
crowded	549
after	546
leaning	545
smiles	545
ds	543
photo	542
onto	542
steps	542
rocks	540
catch	538
pose	538
y@@	537
ra@@	537
p	531
d@@	530
skirt	528
preparing	521
fire	519
left	519
shirtless	517
subway	517
which	516
sunny	514
ri@@	514
have	510
flag	509
ly	508
wood	508
african	504
cowboy	502
costume	499
fishing	497
bar	497
chairs	495
t@@	495
between	495
st@@	494
la@@	493
machine	493
racing	492
glass	489
laughing	487
ca@@	481
stairs	478
ting	478
fountain	476
number	476
corner	475
plaid	474
public	469
be@@	465
bed	463
sh@@	463
setting	463
instruments	462
bags	460
drink	459
plastic	458
volleyball	458
appears	457
beautiful	457
view	455
selling	455
frisbee	455
tall	454
adult	454
concrete	453
sweatshirt	451
b@@	449
police	448
2	445
seated	444
forest	439
couch	439
an@@	437
ted	436
ding	435
woods	435
midair	434
putting	433
e	433
slide	432
un@@	432
bikes	430
where	430
scarf	430
way	428
v@@	426
po@@	425
graffiti	424
to@@	424
object	423
boots	423
beard	423
computer	421
ramp	420
mountains	419
equipment	418
just	418
se@@	418
ladies	418
pa@@	418
edge	417
li@@	417
w@@	416
d	416
take	416
sky	415
pictures	415
co@@	415
toward	412
ro@@	412
pushing	410
ma@@	410
si@@	409
get	407
cooking	407
nearby	406
fish	406
pe@@	404
led	401
ex@@	401
distance	399
throwing	398
pulling	397
rider	396
net	395
g@@	395
buildings	393
ps	393
skateboarder	393
t	393
audience	392
eyes	392
poses	392
i	391
short	390
er	388
sun	387
filled	387
ti@@	387
playground	386
performs	386
cleaning	384
painted	383
lo@@	381
jersey	381
does	381
en@@	380
crossing	380
winter	380
friends	378
door	378
vehicle	377
statue	377
school	377
cigarette	376
3	376
st	376
trail	375
party	375
parade	374
horses	374
art	373
con@@	372
box	372
lawn	371
cutting	370
works	370
instrument	369
six	369
leaves	369
cream	368
sp@@	368
driving	368
m@@	367
smoking	367
yard	366
station	365
gentleman	364
lying	364
bu@@	359
safety	358
beer	358
giving	357
mother	357
k	356
rocky	356
ling	356
ta@@	355
cars	354
few	353
suits	351
concert	350
no	350
do@@	348
reads	348
c	348
shore	347
roof	346
ar@@	346
court	342
structure	340
blond-hair	340
l	340
gloves	338
bottle	338
smile	337
dresses	337
bathing	337
u@@	334
carries	333
apron	331
showing	331
perform	331
shoulder	330
cup	329
cross	329
hit	329
parked	328
fruit	328
surfer	328
martial	327
wet	327
bowling	327
newspaper	327
dock	327
hold	326
bull	326
jackets	325
drums	325
middle-aged	325
arts	324
drinks	324
vests	323
snowboarder	323
pointing	323
tie	322
car@@	322
onlookers	321
lit	319
bunch	319
various	318
display	317
son	317
mo@@	316
costumes	316
goggles	315
teams	314
bird	314
rodeo	314
students	314
sports	314
cu@@	313
ladder	313
scene	312
vi@@	311
flying	310
spectators	309
facing	309
listening	309
ba@@	308
rain	308
prepares	307
make	307
practicing	306
;	306
pile	305
bo@@	304
paint	304
sh	304
talks	304
sort	303
different	301
wedding	301
counter	301
mask	301
home	300
bucket	300
staring	299
f@@	299
ter	299
pro@@	299
show	299
waves	299
vendor	299
parking	298
biker	298
indian	298
speaking	298
feet	297
pre@@	297
gather	297
railing	296
time	295
le@@	295
al	295
tent	295
swinging	294
ch@@	294
mi@@	293
ks	293
n	292
king	290
cake	290
lined	290
cliff	290
les	290
before	290
desk	290
se	289
kicking	289
der	288
grill	288
blanket	288
ches	288
flower	288
on@@	288
gold	288
stop	287
cement	287
coming	286
basket	285
al@@	285
ping	285
new	285
makes	285
coffee	284
n@@	284
flags	284
skateboarding	284
attire	283
younger	283
leather	283
foreground	282
skier	282
empty	282
su@@	282
site	280
bearded	279
gra@@	278
items	278
match	277
swim	277
shot	277
ce	277
silver	276
overlooking	276
w	276
or@@	276
de	275
sa@@	275
go	275
same	273
talk	273
legs	273
leans	273
purse	272
m	272
climbs	271
chasing	270
conversation	269
bowl	268
diving	268
meal	268
writing	267
competition	267
life	266
can	266
it@@	266
surfing	265
attempting	264
mar@@	264
me@@	264
outfits	263
ls	263
uses	263
surfboard	263
animal	262
place	262
business	262
wait	262
gets	262
bride	261
ons	260
ss	260
screen	260
musical	258
tables	258
ch	258
vegetables	258
leaps	258
ad@@	258
alley	257
tri@@	257
tries	256
bald	256
dark-haired	255
rail	255
sing	255
lap	254
pi@@	254
ci@@	254
military	254
balloon	253
gathering	253
bicycles	253
kneeling	253
sts	253
pass	252
ste@@	252
streets	252
lights	251
ble	251
helmets	249
sings	249
wears	249
electric	248
fighting	248
blowing	247
father	247
&apos;	247
chinese	246
stroller	245
wi@@	245
says	245
g	244
signs	244
do	243
balloons	242
ging	241
bikini	241
so@@	241
le	240
gym	240
bubbles	239
hot	239
te@@	238
at@@	238
ation	238
ins	238
ve	238
wheel	238
x	237
base	237
sunset	237
ses	236
walkway	236
th@@	236
h@@	236
musicians	236
hiking	235
brunette	235
platform	235
over@@	235
males	234
ledge	234
ck	234
ated	234
traffic	234
laptop	234
among	234
kissing	233
wooded	233
tu@@	233
held	232
resting	232
faces	232
course	232
made	232
christmas	232
huge	232
ski	232
violin	232
seen	231
ru@@	231
classroom	231
ster	231
leg	230
am@@	229
no@@	229
ke	227
throw	226
competing	226
sandy	225
ating	225
break	225
town	225
alone	224
cafe	224
scooter	223
trunks	223
skiing	223
garden	223
artist	223
helping	221
ct	221
close	221
class	221
hole	220
marathon	220
kick	220
ne@@	220
waits	220
traditional	219
low	219
urban	219
swings	219
passing	219
skating	219
foot	218
block	218
hand@@	218
sticks	217
man@@	217
officer	216
ring	216
meat	216
sliding	216
shows	216
teenage	215
collar	214
we@@	214
mirror	214
ni@@	213
plate	213
moving	213
golf	213
che@@	213
waving	213
pping	213
opposing	213
end	212
turn	212
fun	212
sandals	211
stadium	211
lab	210
cra@@	210
coats	210
goal	209
headphones	209
fla@@	209
happy	209
country	209
er@@	208
doorway	208
photographer	207
performance	207
circle	206
gun	206
l@@	206
clown	206
cre@@	205
pier	204
clear	204
ders	204
leaping	203
type	203
cat	202
members	202
ho@@	201
b	201
brightly	201
fixing	201
office	201
dancers	200
van	200
dirty	200
ment	199
tracks	199
digging	199
karate	199
toys	198
square	198
sc@@	198
he@@	198
friend	198
drum	198
church	198
washing	198
well	198
ve@@	197
bat	197
leash	197
rolling	196
balls	196
ar	196
shallow	196
runner	196
these	195
attached	195
microscope	195
reaching	194
video	194
wear	194
cked	194
ous	194
catching	194
giant	193
tro@@	193
asleep	193
enjoy	193
makeup	193
umbrellas	193
ans	192
seat	192
fi@@	192
not	192
straw	192
shovel	192
ces	192
bar@@	192
desert	191
flip	191
ker	191
grocery	190
ves	190
sled	190
relaxing	190
ate	189
crying	189
boats	188
cut	188
ded	188
performer	188
tes	188
booth	188
dinner	188
ent	188
tattoo	187
beige	187
multicolored	187
row	187
ying	187
hugging	187
neck	187
accordion	187
singer	186
individuals	186
cyclist	186
4	186
hi@@	186
dances	186
himself	185
jogging	184
closed	184
upside	184
tra@@	184
runners	184
pan@@	183
below	183
barefoot	183
can@@	183
books	183
third	183
photograph	183
pond	182
sculpture	182
stra@@	182
telescope	182
stuffed	181
shoulders	181
eat	181
windows	181
ss@@	181
deck	180
sun@@	180
deep	180
r@@	180
skate	180
throws	180
musician	179
dra@@	179
climb	179
for@@	179
wa@@	178
back@@	178
drawing	178
produce	178
golden	177
heads	177
tire	177
roller	176
stream	176
ned	175
catches	175
falling	175
hoodie	175
atop	175
pedestrians	175
mud	175
bicyclist	175
sweeping	174
here	174
attempts	174
lays	174
underneath	174
fa@@	174
gate	174
style	174
project	173
oriental	173
how	173
k@@	173
canoe	172
lies	172
el@@	172
qu@@	172
picnic	171
center	171
fight	171
festival	171
gs	171
daughter	171
matching	170
pair	170
decorated	170
wrapped	170
tricks	170
heavy	169
red-hair	169
ws	169
als	169
bra@@	168
nose	168
khaki	168
pulled	168
goes	168
pushes	168
covering	167
device	167
5	167
trampoline	167
pipe	166
lone	166
per@@	166
blond-haired	166
mu@@	166
gi@@	166
cur@@	166
fallen	165
cane	165
plants	165
muddy	165
fair	165
wetsuit	165
ce@@	164
j@@	164
kind	164
carnival	164
cloth	164
chef	164
teeth	164
crosswalk	164
officers	164
ship	163
taken	163
including	163
also	163
ges	163
cheerleaders	162
gu@@	162
go@@	162
indoor	162
paved	162
tunnel	161
lots	161
bro@@	161
splashing	161
hoop	161
head@@	160
ze	160
pu@@	160
but	160
par@@	160
balcony	159
land	159
hose	159
wing	159
move	159
camouflage	158
fe@@	158
ction	158
age	158
blouse	158
racket	158
cking	157
see	157
sport	157
checking	157
eats	157
females	156
bi@@	156
seven	156
backyard	156
marching	156
stunt	156
nice	155
part	155
passes	155
fo@@	155
help	155
kicks	155
professional	155
try	154
hooded	154
pavement	154
tongue	154
sea	154
du@@	154
airplane	154
cold	153
et	153
jean	153
flies	153
ching	153
slides	152
points	152
trash	152
inter@@	152
mat	151
climber	151
sha@@	151
colors	151
opening	151
multiple	151
denim	151
teenagers	151
uni@@	151
gives	151
ings	151
us	151
um@@	150
mural	150
t-@@	150
obstacle	150
sleeps	150
ear	149
groom	149
surface	149
infant	149
railroad	149
cow	149
local	149
robe	149
laundry	149
aring	149
com@@	149
wide	149
picking	149
tube	149
speaks	149
jo@@	149
sting	149
ty	148
whilst	148
ge	148
rugby	148
put	148
overalls	147
seems	147
hitting	147
ched	147
pouring	147
touching	147
f	147
chi@@	147
gro@@	147
shooting	147
ver@@	146
ped	146
fall	146
pot	146
protective	146
appear	146
bottom	146
prepare	146
drives	145
let	145
sewing	145
wrestling	145
papers	145
fans	145
gymnast	144
bandanna	144
snow@@	144
des	144
bri@@	144
cor@@	144
ked	144
skis	143
sted	143
raised	143
log	143
balancing	143
dry	143
polo	143
ats	143
dancer	143
hula	143
cted	142
piano	142
presentation	142
ke@@	141
round	141
shoe	141
ning	141
guitars	141
curb	141
only	140
landscape	140
scaffolding	140
rest	140
hammer	140
op@@	140
e-@@	140
ys	140
referee	140
paints	139
tre@@	139
il@@	139
goods	139
war@@	138
ming	138
win@@	138
navy	138
motorcycles	138
il	138
da@@	138
fast	138
te	137
squ@@	137
pitcher	137
bs	137
image	137
goalie	137
living	136
walls	136
ja@@	136
swims	136
slope	136
keyboard	136
saxophone	136
guard	136
tractor	135
flo@@	135
driver	135
cone	135
stool	135
enjoys	135
mat@@	135
post	135
bank	134
puts	134
sale	134
first	134
pulls	134
waterfall	134
staircase	134
plane	134
floating	133
direction	133
na@@	133
y-@@	133
kayak	133
ge@@	133
stri@@	133
hiker	133
shade	133
ur@@	133
cting	133
up@@	132
d-@@	132
boxes	132
checkered	132
ct@@	132
finger	132
shaving	132
bmx	132
luggage	131
inflatable	131
bubble	131
riders	131
sta@@	131
reaches	131
garbage	131
id	131
dark-skinned	130
juggling	130
belt	130
formal	130
customers	130
and@@	130
without	129
ga@@	129
wine	129
swimsuit	129
conversing	129
saw	129
moves	129
ver	129
york	129
ful	129
cro@@	129
per	128
bread	128
bending	128
spray	128
examining	128
sea@@	128
banner	128
chases	128
1@@	128
fabric	128
flight	127
ged	127
long-sleeved	127
wed	127
shaking	127
bent	127
min@@	127
arena	127
kes	127
ors	127
club	127
wheelchair	127
poles	127
guitarist	127
boxing	127
smoke	126
soldier	126
lin@@	126
floral	126
shoveling	126
harness	126
lea@@	126
bars	126
half	126
birds	126
ure	126
ati@@	126
ine	126
thrown	125
ph@@	125
sheet	125
funny	125
puddle	125
ha@@	125
ban@@	125
ic@@	125
waters	125
foreign	125
hay	125
container	124
opposite	124
closeup	124
wal@@	124
shed	124
stares	124
sto@@	124
drummer	124
themselves	124
hangs	124
either	123
underwater	123
pieces	123
use	123
surf	123
teacher	123
ms	123
chest	123
ite	123
crew	123
mustache	123
kiss	123
ast	123
brown-haired	122
me	122
cones	122
ary	122
blo@@	122
(	122
chain	122
curly	122
ght	122
ved	122
cyclists	122
ears	121
raft	121
tool	121
h	121
tan@@	121
museum	121
performers	121
robes	121
ck@@	121
th	120
cloudy	120
good	120
snowboard	120
animals	120
tw@@	120
acoustic	120
color	120
ad	120
sho@@	120
bicyclists	120
caught	119
hu@@	119
ic	119
shaped	119
fingers	119
knee	119
lift	119
)	119
serving	119
string	119
suspended	119
ters	119
podium	119
marketplace	118
turned	118
cts	118
ars	118
ac@@	118
swimmer	118
native	118
clean	118
lane	117
porch	117
hikers	117
sses	117
machinery	117
ist	117
puppy	117
towel	117
eye	117
caucasian	116
tourists	116
biking	116
sed	116
plant	116
t-shirts	116
wagon	116
hallway	116
bucking	116
lunch	116
pajamas	116
soldiers	116
santa	116
sol@@	115
escalator	115
shes	115
athletic	115
sli@@	115
surrounding	115
summer	115
cs	115
fu@@	115
puck	115
defen@@	115
intersection	114
beam	114
tools	114
sk@@	114
ops	114
els	114
palm	114
amusement	114
garb	114
jerseys	114
celebrating	114
bikers	114
mobile	113
ea@@	113
hospital	113
money	113
steep	113
heels	113
motorbike	113
tops	113
cal	113
ined	113
stre@@	113
rests	113
neon	112
gas	112
you	112
clo@@	112
red-haired	112
frame	112
button	112
print	112
cal@@	112
visible	112
softball	112
socks	112
practice	112
member	112
spi@@	112
hurdle	112
eds	111
paddling	111
brush	111
brea@@	111
athlete	111
narrow	111
blocks	111
army	111
cap@@	110
candy	110
bottles	110
step	110
sized	110
wel@@	110
cing	110
water@@	110
pan	110
dri@@	110
haircut	110
sheep	110
bat@@	110
crosses	109
sal@@	109
hood	109
shown	109
carriage	109
observing	109
cks	109
ponytail	109
cla@@	109
barbecue	109
scuba	109
laughs	109
racetrack	109
participating	109
speech	109
happily	108
individual	108
sticking	108
lines	108
flowered	108
downtown	108
sets	108
airport	108
sneakers	107
backwards	107
backs	107
firetruck	107
model	107
backpacks	107
tur@@	107
eastern	107
advertisement	107
poster	107
vie@@	107
japanese	107
position	107
ant	107
et@@	107
mid-@@	107
things	107
ages	106
wo@@	106
baskets	106
benches	106
pin@@	106
was	106
vely	106
teenager	106
2@@	106
maroon	106
meeting	106
pped	106
para@@	106
gh@@	106
sells	106
skirts	106
raising	106
herself	106
college	106
scra@@	105
mall	105
bling	105
caps	105
tion	105
long-haired	105
space	105
beverage	105
rec@@	105
plaza	105
tattoos	104
mound	104
squatting	104
pit@@	104
jumpsuit	104
sides	104
dre@@	103
lar	103
helps	103
bow	103
rink	103
gre@@	103
buying	103
cha@@	103
leading	103
routine	103
gentlemen	102
opponent	102
homeless	102
snowboarding	102
stripes	102
clu@@	102
ator	102
el	101
ent@@	101
action	101
figure	101
hang	101
trumpet	101
bur@@	101
motocross	101
vers	101
hoo@@	101
ced	101
german	101
pri@@	101
reflective	100
patio	100
ger	100
firefighters	100
kneels	100
teen	100
ahead	100
welding	100
been	100
paddle	100
computers	100
redheaded	100
tub	100
act	100
broom	99
teal	99
boardwalk	99
pull	99
cker	99
indoors	99
cobblestone	99
headband	99
mom	99
newborn	99
evening	99
cards	98
grilling	98
laugh	98
magazine	98
folding	98
pen@@	98
forward	98
possibly	98
pes	98
student	98
motorcyclist	98
balding	98
smokes	98
lan@@	98
pitch	98
operating	97
map	97
courtyard	97
wire	97
res	97
em@@	97
necklace	97
thing	97
plates	97
atten@@	97
hol@@	97
ely	97
cli@@	97
boards	97
cricket	97
tin@@	97
mostly	97
ger@@	96
balance	96
-	96
so	96
tor@@	96
repairing	96
mohawk	96
pen	96
ments	96
ski@@	96
naked	96
brushing	96
fro@@	95
rowing	95
amp	95
wer	95
pit	95
3@@	95
lifting	95
nap	95
sell	95
craft	95
branch	95
cheering	95
dro@@	95
falls	95
tile	95
ler	95
ving	95
wings	95
pick	94
ol@@	94
carpet	94
spinning	94
blows	94
shadow	94
tter	94
fle@@	94
library	94
guns	94
choir	94
im@@	94
clad	94
pizza	94
read	93
viewing	93
sky@@	93
if	93
biting	93
peace	93
raises	93
medical	93
barber	93
orchestra	93
racer	93
policeman	93
weather	92
pla@@	92
attention	92
splashes	92
ir@@	92
shi@@	92
objects	92
displaying	92
tray	92
cam@@	92
0@@	92
gravel	92
garage	92
skater	92
fresh	92
liquid	91
aged	91
fenced	91
ear@@	91
ssi@@	91
spread	91
handstand	91
airborne	91
smaller	91
wheels	91
knees	91
job	91
warm	91
passengers	91
coo@@	91
stic	91
ining	91
vehicles	91
hits	91
compete	91
sporting	91
app@@	91
catcher	91
ropes	90
bre@@	90
tal@@	90
come	90
!	90
lamp	90
our	90
pigeons	90
swe@@	90
skates	90
wor@@	90
item	90
tied	90
hall	90
tents	90
lead	90
uniformed	90
fully	90
skateboards	90
feeding	90
cups	90
neighborhood	89
bushes	89
microphones	89
wn	89
je@@	89
long-sleeve	89
dishes	89
lu@@	89
birthday	89
und	89
intently	89
ward	89
ents	89
dly	89
bass	89
amongst	89
photos	89
carry	89
rainbow	88
sleeveless	88
fruits	88
fly	88
eight	88
ties	88
ber@@	88
polka	88
shing	88
0	88
point	88
stops	88
mid	87
headscarf	87
rows	87
dge	87
cook	87
married	87
excited	87
spe@@	87
har@@	87
ter@@	87
conference	87
great	87
sub@@	87
ently	87
prote@@	87
crossed	87
star	87
pur@@	87
leaving	87
studio	86
bathroom	86
flip-flops	86
vel@@	86
tackle	86
jewelry	86
backdrop	86
cardboard	86
6	86
sharing	86
tag	86
attempt	86
mer@@	86
crane	86
handing	86
loading	86
ssed	86
ju@@	86
carving	86
doors	85
sti@@	85
order	85
au@@	85
youth	85
dining	85
security	85
transportation	85
sofa	85
cover	85
rubber	85
parents	85
cuts	85
single	85
grand@@	85
entrance	85
stove	84
folded	84
ou@@	84
snow-covered	84
cru@@	84
watched	84
castle	84
mp@@	84
taxi	84
fil@@	84
turning	84
sw@@	84
fisherman	84
ously	84
called	84
boun@@	84
corn	84
patterned	84
start	84
out@@	84
crouches	83
elephant	83
&amp;	83
smo@@	83
don@@	83
shoot	83
firemen	83
fur	83
overhead	83
stopped	83
doctor	83
storefront	83
1	83
ssion	83
oned	82
terrain	82
derby	82
pretty	82
kit@@	82
world	82
dd@@	82
col@@	82
dune	82
apple	82
formation	82
range	82
her@@	82
case	82
shops	82
ran@@	82
suitcase	82
knife	82
greyhound	82
song	82
rolls	82
cally	81
ance	81
barrel	81
fix	81
pillow	81
len@@	81
apartment	81
photographs	81
tower	81
stretching	81
-like	81
kers	81
tv	81
electronic	81
more	81
ribbon	81
strange	80
balances	80
lit@@	80
ceiling	80
outstretched	80
collared	80
ten	80
tail	80
assi@@	80
artwork	80
dar@@	80
vegetable	80
shepherd	80
ty@@	80
athletes	80
ethnic	80
ballet	79
sword	79
tle	79
arti@@	79
sweat@@	79
swimmers	79
pe	79
village	79
tly	79
sit@@	79
dreadlocks	79
ns	79
farm	79
kite	79
rings	79
protest	79
form	79
free	79
live	79
8	79
gathers	79
factory	78
wading	78
stack	78
knit	78
fr@@	78
directions	78
dish	78
coach	78
we	78
ug@@	78
checks	78
pack	78
sink	78
tourist	78
pottery	78
5@@	78
ity	78
observe	77
training	77
gg@@	77
second	77
the@@	77
fancy	77
mb@@	77
petting	77
most	77
wheeled	77
pop@@	77
speed	77
shovels	76
engine	76
pol@@	76
furry	76
rural	76
kayaking	76
teaching	76
attending	76
slightly	76
waist	76
buy	76
less	76
cat@@	76
creek	76
dol@@	76
control	76
card	76
upon	76
buckets	76
casual	76
gray-haired	76
bouquet	76
carts	76
air@@	76
ceremony	76
colle@@	75
ckers	75
traveling	75
scar@@	75
bin	75
photographed	75
groups	75
beneath	75
steel	75
hillside	75
crouching	75
horseback	75
jockey	75
numbers	75
barrier	74
applying	74
sle@@	74
rough	74
chicken	74
candles	74
boarding	74
mal@@	74
cans	74
telephone	74
bath	74
ture	74
float	74
heart	74
ab@@	74
tattooed	74
stance	74
had	74
though	73
reach	73
mic	73
atta@@	73
cleans	73
gown	73
slo@@	73
dy	73
bleachers	73
vendors	73
covers	73
ffs	73
seats	73
dot	73
fol@@	73
ori@@	73
races	73
ll	73
african-american	73
exercise	73
fan	73
calf	73
donkey	73
converse	72
trailer	72
clouds	72
bricks	72
furniture	72
fencing	72
soda	72
vo@@	72
advertising	72
dle	72
broken	72
straight	72
ally	72
.@@	72
lay	72
turns	72
coloring	72
placing	72
chase	72
gle	72
z@@	71
sur@@	71
own	71
loom	71
fluffy	71
doll	71
ten@@	71
story	71
cooks	71
snack	71
dan@@	71
bear	71
bil@@	71
bly	71
hotel	71
fireman	71
name	71
enterta@@	71
camping	71
games	71
discussing	71
downhill	71
drawn	71
por@@	71
oring	71
sty@@	71
4@@	71
zi@@	71
religious	71
hoops	71
patient	71
ard	71
gri@@	70
partially	70
billboard	70
flipping	70
creating	70
paddles	70
jet	70
atv	70
written	70
ut	70
customer	70
ali@@	70
ven	70
still	70
mixing	70
ion	70
thin	70
side@@	70
black@@	70
filling	70
rug	70
dead	70
starting	70
play@@	70
rainy	70
olympics	70
slacks	69
ies	69
bends	69
pp@@	69
shaved	69
dimly	69
theater	69
unicycle	69
glo@@	69
bun@@	69
cast	69
mes	69
ations	69
present	69
wrestle	69
dust	69
teammate	69
arm@@	69
sailing	69
venue	69
power	69
rollerblades	69
tight	69
grinding	69
couples	69
discussion	68
examines	68
leap	68
run@@	68
tea	68
gymnasium	68
dusk	68
spraying	68
ils	68
sandwich	68
clay	68
stu@@	68
jungle	68
leads	68
ing@@	68
word	68
stall	68
surfs	68
finish	68
protesting	68
ral	67
pins	67
fri@@	67
chalk	67
weaving	67
used	67
pra@@	67
torch	67
sure	67
following	67
cameras	67
chess	67
glove	67
material	67
calm	67
blow	67
hair@@	67
clapping	67
yoga	67
star@@	67
push	67
sters	66
shiel@@	66
relax	66
similar	66
gui@@	66
variety	66
thumbs	66
men@@	66
ery	66
follows	66
ornate	66
splash	66
trunk	66
bles	66
hugs	66
kilt	66
london	66
crafts	66
silhouette	66
pale	65
closely	65
eling	65
yel@@	65
flute	65
fake	65
belly	65
amidst	65
engaged	65
horn	65
gymnastics	65
tropical	65
plan@@	65
dive	65
fix@@	65
deli@@	65
tape	65
section	65
wind@@	65
wh@@	65
tends	65
hug	65
ki@@	65
comes	65
ram@@	65
laptops	65
lining	65
protesters	65
bin@@	64
duck	64
gar@@	64
she@@	64
nighttime	64
elev@@	64
lips	64
groceries	64
branches	64
share	64
messy	64
inspecting	64
ser@@	64
larger	64
ones	64
television	64
drive	64
bare	64
stones	64
iron	64
patch	64
listens	64
us@@	64
tee	64
tered	63
approaching	63
drill	63
comple@@	63
ams	63
prin@@	63
aisle	63
ry	63
ures	63
mul@@	63
puppies	63
placed	63
cel@@	63
trashcan	63
dum@@	63
far	63
moment	63
stripe	63
rally	63
batter	63
mmed	63
ght@@	63
ly-@@	63
tossing	63
sear@@	63
dun@@	63
am	63
repair	63
sion	63
observes	63
cello	63
ens	63
work@@	63
scenery	62
scenic	62
dough	62
lighting	62
moped	62
gestures	62
done	62
cheek	62
masks	62
spoon	62
reflection	62
wheelbarrow	62
form@@	62
vol@@	62
saying	62
overweight	62
forehead	62
shoppers	62
scre@@	62
pathway	61
sprinkler	61
cri@@	61
numerous	61
ham@@	61
houses	61
juice	61
cho@@	61
tires	61
wind	61
tired	61
firefighter	61
company	61
der@@	61
motor	61
headed	61
top@@	61
participate	61
mm@@	61
parachute	61
x@@	61
supplies	61
ky	61
pours	61
grabbing	61
opens	61
ates	61
seem	60
crouched	60
whi@@	60
kne@@	60
carefully	60
tiled	60
scarves	60
hau@@	60
pt	60
son@@	60
oc@@	60
cute	60
missing	60
ung	60
ggy	60
motor@@	60
bowls	60
coaster	60
bal@@	60
oms	60
beanie	60
kno@@	60
stroll	60
ft	60
whom	60
tour	60
rapids	60
mop	60
serve	60
mit@@	60
comfor@@	60
listen	60
jumped	60
cle	60
speak	60
ballerina	60
shadows	60
wheelie	60
canvas	59
nature	59
pigtails	59
plo@@	59
lifts	59
teammates	59
ily	59
spee@@	59
barri@@	59
passenger	59
refle@@	59
celebration	59
casually	59
stare	59
oven	59
wares	59
bl@@	59
notes	59
cage	59
&apos;t	59
tex@@	59
ue	59
grin@@	59
sna@@	59
care	59
kisses	59
od	59
motion	59
lecture	59
landing	59
loo@@	59
rollerblading	59
umpire	59
sunlight	58
scent	58
ands	58
logo	58
movie	58
toddlers	58
pads	58
ctions	58
lacrosse	58
skinny	58
sel	58
ven@@	58
nets	58
hind	58
tiny	58
shakes	58
touches	58
hun@@	58
dges	58
arcade	58
nail	58
constru@@	58
exhibit	58
circular	58
thers	58
load	58
olympic	58
racers	58
almost	57
turban	57
products	57
thre@@	57
helicopter	57
check	57
embracing	57
printed	57
skiers	57
que	57
gallery	57
chefs	57
rod	57
descent	57
shades	57
diver	57
blue-@@	57
tug-of-war	57
rollerskating	57
shower	57
bagpipes	57
shoreline	57
under@@	57
lounge	57
boxer	57
dies	57
dal	57
tun@@	57
chewing	57
cameraman	57
hispanic	57
7	57
binoculars	56
frozen	56
chocolate	56
expression	56
onal	56
flat	56
lar@@	56
chainsaw	56
ton@@	56
desc@@	56
trucks	56
-colored	56
displays	56
spon@@	56
pers	56
high-@@	56
pine	56
ckets	56
chatting	56
my	56
9@@	56
modern	56
peers	56
spotted	56
va@@	56
silly	56
camel	56
quickly	56
gla@@	56
snowshoes	56
mon	55
gan	55
machines	55
played	55
fashioned	55
strip	55
suspenders	55
gr@@	55
recei@@	55
adjusting	55
ctor	55
lush	55
organ@@	55
target	55
environment	55
decorative	55
oper@@	55
licking	55
alleyway	55
yarn	55
hop@@	55
embrace	55
score	55
presents	55
storm	55
learning	55
rollerskates	54
design	54
wheeler	54
shel@@	54
late	54
scrubs	54
trolley	54
midst	54
notebook	54
practices	54
blankets	54
within	54
highway	54
shar@@	54
en	54
flips	54
admiring	54
underwear	54
cle@@	54
off-camera	54
retrie@@	54
patro@@	54
link	54
char@@	54
pinata	54
wei@@	54
sco@@	54
butterfly	54
vil	54
farmer	54
words	54
gift	54
decora@@	54
sm@@	54
ff@@	54
zing	54
ner	54
cool	54
stairway	54
dives	54
enter	53
hike	53
hills	53
irs	53
cles	53
leotard	53
sty	53
ob@@	53
sack	53
dusty	53
examine	53
zes	53
eggs	53
dad	53
ster@@	53
images	53
bite	53
autumn	53
newspapers	53
tripod	53
tricycle	53
trench	53
appar@@	53
ical	53
ends	53
fl@@	53
poor	53
bra	53
stomach	53
built	53
dj	53
wig	53
camels	53
mel@@	53
-down	53
sweeps	53
ering	53
wrestler	53
short-sleeved	52
approaches	52
lean	52
scooters	52
contraption	52
odd	52
concentra@@	52
rolled	52
swimsuits	52
chalkboard	52
teens	52
din@@	52
wires	52
begins	52
kin@@	52
cy	52
complete	52
tting	52
mouths	52
rin@@	52
bla@@	52
fin@@	52
owner	52
ff	52
cheer	52
tights	52
fts	52
wood@@	52
green@@	52
scape	52
fli@@	52
ards	52
cowboys	52
guards	52
sum@@	52
bathtub	52
rooftop	52
interacting	52
cool@@	52
sledding	52
valley	51
sam@@	51
cou@@	51
packed	51
surgery	51
le-@@	51
briefcase	51
bouncing	51
demonstration	51
instru@@	51
policemen	51
touch	51
crates	51
stru@@	51
debris	51
cover@@	51
ol	51
motorized	51
ton	51
bag@@	51
playfully	51
tran@@	51
praying	51
pun@@	51
places	51
merchandise	51
sl@@	51
ze@@	51
ligh@@	51
rail@@	51
bamboo	51
pumpkin	51
brass	51
underground	51
asians	51
stretches	51
figh@@	51
cycling	51
crown	51
loaded	51
hut	51
contest	51
lounging	51
bull@@	51
ited	51
stant	51
portrait	51
rice	51
pedestrian	51
wers	51
demonstrating	50
graph@@	50
shining	50
ther	50
lifted	50
ian	50
some@@	50
brushes	50
ul@@	50
ka@@	50
sive	50
handrail	50
gling	50
kie	50
circu@@	50
makeshift	50
vil@@	50
dire@@	50
mower	50
is@@	50
washer	50
located	50
monument	50
stump	50
pad	50
sparkl@@	50
angel	50
proce@@	50
padd@@	50
sel@@	50
ie	50
thou@@	50
break@@	50
base@@	50
sele@@	50
skaters	50
2012	50
pay	49
wild	49
black-haired	49
u	49
que@@	49
scaffold	49
jogs	49
pillar	49
stilts	49
rea@@	49
entertaining	49
yer	49
shelf	49
aprons	49
axe	49
tiger	49
jumper	49
cape	49
gers	49
rock@@	49
ssing	49
fishes	49
r	49
breakdancing	49
ature	49
maneu@@	49
pal@@	49
blu@@	49
rear	49
perched	49
passersby	49
speaker	49
sailboat	49
leaf	49
science	49
apples	49
tending	49
chin	49
knitting	49
conta@@	49
domin@@	49
proje@@	49
pat@@	49
writes	49
roll	49
wash	49
rack	49
scouts	49
ets	48
artists	48
beads	48
emergency	48
foam	48
crosscountry	48
industrial	48
spra@@	48
farmers	48
9	48
cargo	48
spo@@	48
attractive	48
down@@	48
well-@@	48
pper	48
techni@@	48
banjo	48
were	48
ish	48
wrestlers	48
human	48
photographers	48
posed	48
stat@@	48
kil@@	48
part@@	48
jeep	48
land@@	48
cano@@	48
businessman	48
tching	48
march	48
burgundy	48
sculp@@	48
give	48
tackled	48
workshop	48
chan@@	48
support	47
too	47
suppor@@	47
displayed	47
assem@@	47
regi@@	47
pretending	47
ence	47
bb@@	47
beverages	47
short-haired	47
kel@@	47
stepping	47
figures	47
legged	47
topless	47
deci@@	47
shiny	47
french	47
sleep	47
goat	47
mountainside	47
cket	47
leaf@@	47
dal@@	47
studying	47
skies	47
tal	47
wer@@	47
road@@	47
department	47
rifle	47
followed	47
bush	47
posters	47
ual	47
ghts	47
laun@@	47
service	47
milk	47
tournament	47
ama@@	47
stringed	46
beret	46
nails	46
ility	46
os	46
appro@@	46
pets	46
suv	46
laboratory	46
splashed	46
bulldozer	46
gazes	46
shawl	46
plain	46
hou@@	46
jack@@	46
joy	46
consisting	46
information	46
pots	46
gesture	46
homemade	46
meet	46
retriever	46
otic	46
flowing	46
laundromat	46
will	46
dden	46
colorfully	46
file	46
costumed	46
la	46
mouse	46
burning	46
hawaiian	46
soap	46
turquoise	46
scu@@	46
ag@@	46
asia	46
acce@@	46
ddles	46
roun@@	46
win	46
monkey	46
hiding	46
shaggy	45
ley	45
lion	45
tures	45
cola	45
curve	45
nu@@	45
gazing	45
ddling	45
til@@	45
drum@@	45
skil@@	45
blood	45
blurry	45
scending	45
ners	45
employees	45
mountainous	45
tying	45
designs	45
containers	45
flu@@	45
tho@@	45
wake@@	45
eing	45
hur@@	45
egg	45
series	45
bon@@	45
fore@@	45
squir@@	45
aerial	45
trip	45
ttered	45
cellphones	45
oranges	45
chat	45
button-@@	45
school@@	45
brow@@	45
gues	45
mexican	45
strapped	45
amount	45
merry-go-round	45
fireworks	45
boarder	45
fer@@	45
stretched	45
rela@@	45
marked	45
every@@	45
clock	45
headdress	45
power@@	45
socializing	45
pum@@	45
kn@@	45
somewhere	45
toothbrush	45
cows	45
sidelines	45
graffiti@@	45
citi@@	45
kick@@	45
ie@@	45
ways	45
location	45
product	45
entering	45
vending	45
call	45
framed	44
sad	44
warehouse	44
miniature	44
thered	44
roo@@	44
washes	44
mers	44
chopping	44
conductor	44
ute	44
kee@@	44
clearing	44
dor	44
graduation	44
nam@@	44
cab	44
china	44
shine	44
wr@@	44
handling	44
auditorium	44
floo@@	44
adjusts	44
foods	44
roller@@	44
snowball	44
times	44
sy@@	44
atm	44
pirate	44
interesting	44
kicked	44
casting	44
punching	44
hotdog	44
tic	44
off-@@	44
identical	44
thin@@	44
crayons	44
gent@@	44
fen@@	44
bystanders	44
keep	44
bottoms	44
repairs	44
pilot	44
keys	44
driveway	43
ids	43
employee	43
white-haired	43
aded	43
foot@@	43
dent	43
grab	43
eled	43
ior	43
strike	43
wrap	43
nine	43
viol@@	43
chee@@	43
zard	43
process	43
wife	43
#	43
columns	43
far@@	43
presenting	43
oping	43
grabs	43
dragging	43
cakes	43
angel@@	43
spot	43
stin@@	43
deer	43
gesturing	43
whistle	43
sleeves	43
medium	43
sau@@	43
elaborate	43
flannel	43
gy	43
indi@@	43
ssive	43
gging	43
planting	43
signing	43
rescue	43
fair@@	43
war	43
stry	43
morning	43
cheese	43
stoop	43
pel@@	43
containing	42
bay	42
stuck	42
supermarket	42
facial	42
scaling	42
mon@@	42
den@@	42
river@@	42
ut@@	42
gh	42
ise	42
compet@@	42
bib	42
medi@@	42
tial	42
zen	42
mea@@	42
iling	42
relea@@	42
lighted	42
champagne	42
coa@@	42
tuxedo	42
hydrant	42
types	42
go-@@	42
han@@	42
menu	42
nun	42
fire@@	42
sin@@	42
histor@@	42
dressing	42
handle	42
dig	42
super@@	42
stroke	42
ctors	42
skills	42
projector	42
snowsuit	42
dark@@	42
lie	42
babies	42
leggings	42
operates	42
festive	42
shape	42
reception	42
ducks	42
oes	42
zed	42
are@@	42
vering	42
lt	42
bikinis	42
acrobati@@	42
mug	41
decorations	41
coun@@	41
scissors	41
bedroom	41
sil@@	41
book@@	41
lime	41
statues	41
str@@	41
rub@@	41
draped	41
handed	41
hel@@	41
snacks	41
multi@@	41
heavily	41
emer@@	41
ddled	41
yo@@	41
canal	41
ctive	41
eyeglasses	41
crashing	41
follow	41
tackling	41
brother	41
ening	41
skyline	41
zy	41
snowboar@@	41
navi@@	41
beers	41
canadian	41
foc@@	41
gos	41
pattern	41
mannequin	41
meadow	41
zone	41
ines	41
iz@@	41
sprin@@	41
belongings	41
wns	41
parachu@@	41
sail	41
change	41
daytime	41
advertisements	41
stars	41
won@@	41
icy	41
body@@	41
booths	41
harbor	41
bea@@	41
unusual	41
quarterback	41
university	41
zens	41
arch@@	41
horse@@	41
greyhounds	41
british	41
tr@@	41
picks	41
victory	41
expl@@	41
fat	41
gage	41
hotdogs	40
tags	40
assor@@	40
candle	40
sparks	40
pointed	40
self	40
able	40
flower@@	40
campfire	40
serves	40
featuring	40
terminal	40
boxers	40
radio	40
cases	40
browsing	40
cloud	40
drag	40
level	40
when	40
screaming	40
upward	40
mou@@	40
else	40
gn@@	40
squats	40
in-@@	40
wea@@	40
odles	40
ey	40
got	40
european	40
unds	40
involving	40
ari@@	40
cti@@	40
surfers	40
logs	40
xi@@	40
focused	40
staff	40
motorcyclists	40
numbered	40
tel@@	40
tend	40
gged	40
sideways	40
ple	40
main	40
bit	40
bend	40
trains	40
kiosk	40
strugg@@	40
waterway	40
battle	40
arran@@	39
raincoat	39
focus	39
sign@@	39
itor	39
newly@@	39
tablecloth	39
transit	39
dumpster	39
heading	39
dia@@	39
pea@@	39
stan@@	39
cup@@	39
ffy	39
ber	39
activity	39
chopsticks	39
cycles	39
cy@@	39
yelling	39
mail@@	39
cer@@	39
tin	39
characters	39
dish@@	39
raise	39
muzzle	39
really	39
foliage	39
-covered	39
tug@@	39
bananas	39
community	39
fre@@	39
on-@@	39
camp	39
injured	39
fit	39
auto@@	39
rit@@	39
scope	39
double	39
receiving	39
nurse	39
amid	39
patri@@	39
metro	38
paintings	38
mcdonald	38
barefooted	38
boo@@	38
pictured	38
shirted	38
magazines	38
red-@@	38
expre@@	38
sprayed	38
ell	38
loa@@	38
fun@@	38
length	38
marble	38
aquarium	38
bronco	38
compan@@	38
desks	38
peering	38
visiting	38
overlooks	38
ppy	38
seri@@	38
rafting	38
blin@@	38
divers	38
cocon@@	38
wn@@	38
sorting	38
capped	38
letters	38
dr@@	38
tt	38
one-@@	38
buried	38
guar@@	38
cheerleader	38
um	38
huddle	38
street@@	38
gin@@	38
cigarettes	38
fan@@	38
thick	38
love	38
afternoon	38
gry	38
ll@@	38
buffet	38
celebrate	38
filming	38
ny	38
two-@@	38
ition	38
crowds	38
fron@@	38
senior	38
than	38
fields	38
demonstra@@	38
lets	38
blazer	38
gates	38
bartender	38
bes	38
celebra@@	38
whe@@	38
clowns	38
paperwork	38
tt@@	37
climbers	37
sk	37
sharp	37
sheets	37
paint@@	37
doctors	37
build	37
cotton	37
digs	37
earrings	37
anti@@	37
ker@@	37
digital	37
zz@@	37
sausa@@	37
bow@@	37
em	37
purses	37
ball@@	37
casino	37
purchase	37
wine@@	37
dom	37
speci@@	37
ur	37
horizon	37
cherry	37
jumpsuits	37
ren@@	37
mini@@	37
ass@@	37
expla@@	37
aming	37
video@@	37
maintenance	37
ce-@@	37
checked	37
ot@@	37
sniffing	37
polit@@	37
rist@@	37
sca@@	37
harne@@	37
happ@@	37
acting	37
india	37
illumin@@	37
kni@@	37
earphones	37
extended	37
garment	37
avo@@	37
phones	37
golfer	37
dinosaur	37
camp@@	37
dding	37
deli	37
inspects	37
fellow	37
post@@	37
lasso	37
jockeys	37
conne@@	36
shake	36
surge@@	36
pop	36
driven	36
lers	36
canyon	36
ele@@	36
stores	36
asking	36
oth	36
qui@@	36
marker	36
desig@@	36
high@@	36
life@@	36
ingredients	36
competitive	36
dyed	36
denti@@	36
fied	36
es@@	36
pl@@	36
pin	36
silhou@@	36
zzy	36
lands	36
finishing	36
scru@@	36
see@@	36
partici@@	36
ami@@	36
draws	36
snake	36
chie@@	36
persons	36
fting	36
muslim	36
blurred	36
kayaks	36
instructor	36
white@@	36
floats	36
im	36
sail@@	36
curtain	36
highchair	36
bundled	36
monopoly	36
bounce	36
passed	36
elmo	36
deser@@	36
gue@@	36
sno@@	36
enthusia@@	36
natural	36
monit@@	36
oni@@	36
pauses	36
travel	36
6@@	36
temple	36
fashion	36
tarp	36
arring	36
lam@@	36
cleaner	36
pack@@	36
arri@@	36
suburban	35
ticket	35
drilling	35
prepared	35
aid	35
electrical	35
our@@	35
barbecu@@	35
ak@@	35
ond	35
af@@	35
gen@@	35
arch	35
khakis	35
offer@@	35
del@@	35
alls	35
adole@@	35
pet	35
vacuum	35
nic@@	35
contem@@	35
test	35
lun@@	35
relaxes	35
cir@@	35
dryer	35
ser	35
youths	35
positi@@	35
punch	35
berry	35
bbing	35
unknown	35
spotlight	35
recording	35
sta	35
sem@@	35
league	35
fra@@	35
colum@@	35
blocking	35
ep@@	35
portable	35
unhappy	35
potato	35
congreg@@	35
awning	35
contents	35
pipes	35
boulder	35
ta	35
harmonica	35
posse@@	35
flock	35
paying	35
newly	35
seagulls	35
remo@@	35
comm@@	35
dos	35
freshly	35
cade	35
feathers	35
nurses	35
families	35
ado@@	35
badminton	35
even	35
entertains	35
handbag	35
backpa@@	35
ads	35
clothed	35
ols	35
intense	35
rain@@	35
ak	35
cyc@@	35
laid	35
personnel	35
bites	35
protection	34
conver@@	34
lower	34
spa@@	34
cial	34
everyone	34
ador@@	34
surprised	34
gir@@	34
pushed	34
commercial	34
monitor	34
tiles	34
juggles	34
feather	34
completely	34
riot	34
upwards	34
waterskiing	34
crops	34
rubs	34
whose	34
middle-@@	34
lou@@	34
upper	34
travel@@	34
bor@@	34
ca	34
chips	34
burgers	34
tribal	34
begin	34
completing	34
trim	34
uts	34
ko@@	34
sponsored	34
chers	34
bowler	34
poodle	34
necklaces	34
pier@@	34
much	34
razor	34
recor@@	34
opened	34
ford	34
piles	34
butt@@	34
disc	34
grand	34
conducting	34
peri@@	34
workout	34
bel@@	34
provi@@	34
surgical	34
cit@@	34
mini	34
warmly	34
america	34
fur@@	34
sweaters	34
ina	34
crate	34
roses	34
wheel@@	34
mop@@	34
tted	34
bunny	34
fet@@	34
peeking	34
pillows	34
vegetation	34
cher	34
raking	34
ants	34
treat	34
ingly	34
experiment	34
system	33
finger@@	33
clarin@@	33
tails	33
spanish	33
band@@	33
mixer	33
bracelet	33
alcohol	33
handle@@	33
ach	33
ately	33
stunts	33
cries	33
stirring	33
text	33
belts	33
establishment	33
social	33
rickshaw	33
last	33
apart	33
hammock	33
tips	33
directly	33
twirling	33
cr@@	33
kl@@	33
wra@@	33
pig	33
sks	33
jack	33
south	33
cul@@	33
classic	33
dering	33
surroun@@	33
usa	33
siting	33
stro@@	33
semi-@@	33
fati@@	33
record	33
timate	33
sundress	33
butcher	33
hear@@	33
asphalt	33
wilderness	33
backseat	33
package	33
?	33
ther@@	33
monk	33
wan@@	33
dant	33
whole	33
shoots	33
exiting	33
bum@@	33
awaiting	33
vaul@@	33
least	33
lens	33
muzzled	33
tutu	33
mag@@	33
four-@@	33
find	33
looked	33
unique	33
mounted	33
scales	33
bie	33
beginning	33
gy@@	33
pati@@	33
striking	33
mountaintop	33
goatee	32
olive	32
attra@@	32
dis@@	32
cultu@@	32
new@@	32
countryside	32
ppers	32
aling	32
s-@@	32
fetch	32
trophy	32
forms	32
rollers	32
redhead	32
perhaps	32
dragon	32
weap@@	32
ney	32
mechanical	32
convention	32
stacked	32
cess	32
task	32
watermelon	32
bicycling	32
labeled	32
early	32
spring	32
san@@	32
wards	32
verti@@	32
crawling	32
vacuuming	32
tuba	32
watering	32
sad@@	32
fedora	32
cattle	32
wrapping	32
surround	32
mill	32
press@@	32
cian	32
sor@@	32
soft	32
wash@@	32
cave	32
jenga	32
vibran@@	32
mark	32
skull	32
hunched	32
waiter	32
pencil	32
by@@	32
antique	32
muscular	32
bing	32
w-@@	32
paws	32
intere@@	32
somebody	32
white-@@	32
pony	32
lanterns	32
hooping	32
greenery	32
batman	32
fill	32
curly-haired	32
exercising	32
themed	32
rowboat	32
bby	32
gardening	32
bows	32
progress	32
shu@@	32
excitement	32
mascot	32
jog	32
sailor	32
violin@@	32
sparring	32
carrier	32
trav@@	32
ities	32
xylo@@	32
10	32
extreme	32
20@@	32
facility	32
grinds	32
thumb	32
gliding	32
sou@@	32
vintage	32
texting	32
pul@@	31
spots	31
diti@@	31
archite@@	31
inten@@	31
licks	31
py	31
scale	31
fist	31
includes	31
ron@@	31
check@@	31
uphill	31
shelves	31
jewish	31
medieval	31
peach	31
angle	31
bakery	31
eye@@	31
bookstore	31
swords	31
dy@@	31
aiming	31
stacks	31
pie	31
propped	31
dess@@	31
murky	31
snor@@	31
da	31
straw@@	31
mess@@	31
profession@@	31
horizon@@	31
tomatoes	31
fs	31
cer	31
directing	31
kle@@	31
barre@@	31
rocking	31
waitre@@	31
inner@@	31
dribbles	31
ringing	31
ert	31
snowman	31
dam@@	31
tou@@	31
eyed	31
canopy	31
monks	31
holiday	31
quiet	31
seeing	31
gon@@	31
za@@	31
served	31
stock@@	31
treadmill	31
salon	31
iner	31
spins	31
spect@@	31
waterfront	31
ups	31
soon@@	31
accompanied	31
tele@@	31
vent@@	31
distri@@	31
inspe@@	31
sand@@	31
surf@@	31
pres@@	31
sat	31
collie	31
vor@@	31
squee@@	31
because	31
news	31
forested	31
colli@@	31
buggy	31
ordering	31
sen@@	31
conce@@	31
s.	31
nightclub	31
questi@@	31
cigar	31
ma	31
mix@@	31
discu@@	31
named	31
pow@@	30
ste	30
young@@	30
dried	30
separate	30
terrier	30
short-sleeve	30
helme@@	30
inflated	30
stretch	30
rist	30
pacifier	30
peak	30
mixed	30
chased	30
puppet	30
hammering	30
clothesline	30
shines	30
stal	30
residen@@	30
pocket	30
tosses	30
half-@@	30
heav@@	30
four@@	30
lling	30
peace@@	30
tea@@	30
bloss@@	30
picker	30
tery	30
free@@	30
hardwood	30
tree-lined	30
scri@@	30
aqua	30
chemi@@	30
emb@@	30
ird	30
obser@@	30
plank	30
dals	30
diner	30
fireplace	30
sig@@	30
maj@@	30
bell	30
hips	30
watermelons	30
orial	30
roadside	30
bul@@	30
ny@@	30
island	30
claus	30
sla@@	30
bridesmaids	30
commu@@	30
lobby	30
scout	30
racquet	30
activities	30
elder	30
dotted	30
cheerleading	30
incline	30
lum@@	30
painter	30
wiel@@	30
collecting	30
braided	30
old-@@	30
speeds	30
involved	30
gor@@	30
sne@@	30
cop	30
may	30
puzz@@	30
sket@@	30
scientist	30
list	30
carousel	30
hurdles	30
stair	29
john	29
gam@@	29
unfinished	29
stati@@	29
:	29
sound	29
stopping	29
low-@@	29
fork	29
visor	29
soup	29
ugh@@	29
feat@@	29
om	29
goof@@	29
re	29
all@@	29
crow@@	29
horns	29
caution	29
saxoph@@	29
nor@@	29
sleeve	29
spiderman	29
sculpting	29
near@@	29
floors	29
jan@@	29
reddish	29
barren	29
main@@	29
scottish	29
robo@@	29
ese	29
photographing	29
years	29
sprinklers	29
chop@@	29
mats	29
fountains	29
harvesting	29
iss@@	29
mem@@	29
one@@	29
kings	29
sacks	29
turkey	29
glan@@	29
finished	29
singers	29
official	29
polish	29
say	29
hum@@	29
walmart	29
pillars	29
strikes	29
lon@@	29
mess	29
special	29
ruins	29
ping-pong	29
iled	29
walked	29
chu@@	29
parka	29
synchronized	29
microscopes	29
mowing	29
superman	29
enclosed	29
prie@@	29
exhib@@	29
ribbons	29
stuff	29
yawning	29
vy	29
dunk	29
rails	29
val	29
fying	29
pyra@@	29
miami	29
bungee	29
ambulan@@	29
ballerinas	29
dolls	29
slam	29
vine	29
kimono	29
var@@	28
pickup	28
quad	28
cafeteria	28
may@@	28
carri@@	28
termin@@	28
yed	28
grills	28
strum@@	28
cross-@@	28
boogie	28
prepar@@	28
roof@@	28
laden	28
kayaker	28
ka-@@	28
ater	28
sar@@	28
hei@@	28
thro@@	28
halloween	28
wit@@	28
smoo@@	28
steam	28
die	28
amp@@	28
arrow	28
materi@@	28
gli@@	28
engli@@	28
track@@	28
drib@@	28
mechani@@	28
national	28
ev@@	28
charac@@	28
cheer@@	28
br@@	28
pou@@	27
slee@@	27
spat@@	27
burger	27
ose	27
ghtly	27
tive	27
chil@@	27
mime	27
afri@@	27
iro@@	27
guide	27
haired	27
americ@@	27
quet	27
gymna@@	27
grou@@	27
quar@@	27
but@@	27
arr@@	27
banan@@	27
ong	27
spen@@	27
hula-@@	27
experi@@	27
repor@@	27
weight	27
sni@@	27
lau@@	27
glider	27
op	27
skateboar@@	27
peer	27
medit@@	27
8@@	27
ro	27
cloth@@	27
bucks	27
ine@@	27
bet@@	26
ath	26
11	26
sn@@	26
fell	26
swim@@	26
smi@@	26
ach@@	26
headset	26
tions	26
twi@@	26
wakeboard	26
alco@@	26
ness	26
cow@@	26
ambo@@	26
pige@@	26
ha	26
med	26
zoo	26
toi@@	26
tern	26
tor	26
intervie@@	26
bear@@	26
tack@@	26
parallel	26
7@@	26
ady	26
spar@@	26
business@@	26
zz	26
rollerblader	26
kies	26
u.@@	26
bath@@	26
pod	26
those	25
appe@@	25
simi@@	25
fea@@	25
ani@@	25
fel@@	25
tum@@	25
end@@	25
meter	25
mega@@	25
fic	25
g-@@	25
smit@@	25
oppon@@	25
leader	25
stor@@	25
shou@@	25
van@@	25
day@@	25
stron@@	25
ators	25
chal@@	25
musta@@	25
bir@@	25
lli@@	25
windo@@	25
film@@	25
soa@@	25
-up	25
pee@@	25
wild@@	25
ek	25
wet@@	25
home@@	24
of@@	24
tee@@	24
mod@@	24
ell@@	24
ner@@	24
ore@@	24
hung	24
z	24
ggles	24
enga@@	24
pon@@	24
phin	24
key@@	24
ft@@	24
seagu@@	24
p-@@	24
mick@@	24
ya@@	24
ple@@	24
ei@@	24
eli@@	24
eng@@	24
fish@@	24
scat@@	24
tuxe@@	24
das	24
poli@@	24
arabi@@	24
ti	24
balan@@	24
fetti	24
rut@@	24
ler@@	24
partner	24
elemen@@	24
ceremon@@	24
sat@@	24
spongebo@@	24
tation	24
zom@@	24
hor@@	24
keeper	24
fisher@@	24
unter@@	24
scienti@@	24
peop@@	24
ere	23
adi@@	23
v	23
sus	23
lug@@	23
teddy	23
halter	23
wat@@	23
hell@@	23
conc@@	23
shado@@	23
shoul@@	23
contro@@	23
tank@@	23
iter	23
ep	23
mb	23
eu@@	23
hat@@	23
cele@@	23
foo@@	23
chin@@	23
exerci@@	23
refer@@	23
cobb@@	23
ckens	23
cycle	23
tion@@	23
liqu@@	23
congre@@	23
o-@@	23
ples	23
key	23
stern	23
pli@@	23
iting	23
too@@	23
mari@@	23
profe@@	23
trainer	23
ssy	22
suit@@	22
temp@@	22
tain	22
ump@@	22
ized	22
craw@@	22
letter@@	22
los	22
ysi@@	22
hil@@	22
bron@@	22
poin@@	22
excite@@	22
ong@@	22
tomat@@	22
lled	22
instal@@	22
eil	22
cers	22
ssel	22
hin@@	22
ffel	22
adverti@@	22
metalli@@	22
toast	22
ly@@	22
veter@@	22
tat@@	22
embra@@	22
symbo@@	22
monster	22
eleph@@	22
lear@@	22
lly	22
cause	22
pub	22
participat@@	22
popcorn	22
wand	21
ula	21
scoo@@	21
mirro@@	21
lls	21
waff@@	21
ht	21
neck@@	21
spla@@	21
dit@@	21
off@@	21
olo@@	21
ps@@	21
ap@@	21
mor@@	21
cher@@	21
ight	21
sari	21
open-@@	21
hawk	21
shor@@	21
tru@@	21
guit@@	21
ware	21
ath@@	21
fe	21
clean@@	21
hea@@	21
ured	21
grima@@	21
compe@@	21
drop	21
jogger	21
cture	20
jugg@@	20
boar@@	20
iti@@	20
ddle	20
aim@@	20
emp@@	20
rose	20
separ@@	20
co	20
ettes	20
inc@@	20
stair@@	20
sely	20
ponch@@	20
itting	20
fit@@	20
oli@@	20
tz@@	20
ire	20
cray@@	20
-skinned	20
muzz@@	20
ssen@@	20
dings	20
ket@@	20
hom@@	20
jun@@	20
pil@@	20
rou@@	20
condu@@	20
ade	20
obama	20
twister	20
unt	20
mini-@@	20
billi@@	20
jam@@	20
itali@@	20
gradu@@	20
cont@@	19
ge-@@	19
corn@@	19
operation	19
und@@	19
ange@@	19
boot	19
fer	19
zo@@	19
hy@@	19
ame	19
eting	19
camera@@	19
lock	19
cockpit	19
iler	19
tty	19
uti@@	19
cross@@	19
rein@@	19
close@@	19
buddhi@@	19
dober@@	19
bund@@	19
nur@@	19
extre@@	19
entra@@	19
don	19
hal@@	19
lows	19
pavil@@	19
lings	19
stop@@	19
hit@@	19
wning	19
scopes	19
twir@@	19
kaya@@	19
blan@@	18
tote	18
12	18
nati@@	18
woo@@	18
rs	18
pain@@	18
dor@@	18
eth@@	18
mas	18
ang@@	18
ble@@	18
ees	18
noti@@	18
skel@@	18
scot@@	18
buil@@	18
identi@@	18
cock@@	18
gent	18
kla@@	18
passer@@	18
herd	18
fir@@	18
electro@@	18
mask@@	18
tau@@	18
beach@@	18
ow@@	18
tech@@	18
consi@@	18
possi@@	18
onloo@@	18
transpor@@	18
lor	18
coca	18
tar@@	18
ilt	18
rest@@	18
ate@@	18
elegant	18
golf@@	18
lin	18
kimonos	18
aga@@	18
rad@@	18
bathro@@	18
ld	17
vel	17
fini@@	17
parti@@	17
ired	17
wai@@	17
classi@@	17
uring	17
admi@@	17
sole	17
audi@@	17
mo	17
spot@@	17
isle	17
symbol	17
relax@@	17
mi	17
kart	17
obsta@@	17
fiel@@	17
tet	17
bei@@	17
offi@@	17
dur@@	17
sauna	17
taxis	17
zer	17
bad	17
stock	17
leot@@	17
jogg@@	17
sombrer@@	17
ugh	16
ir	16
od@@	16
mountain@@	16
fresh@@	16
gol@@	16
bloo@@	16
chen@@	16
lean@@	16
dir@@	16
loun@@	16
mal	16
che	16
kets	16
ed@@	16
mit	16
alt@@	16
sie	16
nt	16
gallo@@	16
red@@	16
fier	16
rug@@	16
beau@@	16
brown@@	16
sees	16
restaurants	16
vase	16
jug@@	16
stal@@	16
ths	16
ken	16
border	16
vau@@	16
tte	16
gan@@	16
ore	16
ites	16
port	16
tar	16
breakdancer	16
fashi@@	16
bott@@	16
exc@@	16
exam@@	16
lad@@	16
acro@@	16
boy@@	16
pira@@	16
bru@@	16
sstand	15
mobil@@	15
pink@@	15
lei	15
ga	15
kel	15
pause	15
dou@@	15
opy	15
nat@@	15
door@@	15
irt	15
fau@@	15
mannequ@@	15
pers@@	15
stack@@	15
pajam@@	15
potat@@	15
rai@@	15
aro@@	15
portra@@	15
ken@@	15
orange-@@	15
inder	15
sser	15
ddy	15
tage	15
ef@@	15
cran@@	15
ora@@	15
applau@@	15
sexy	15
-haired	15
ican	15
mcdonal@@	15
mir@@	15
sport@@	15
ander	15
risti@@	15
care@@	15
pick@@	15
wir@@	15
tter@@	15
labor	15
balcon@@	14
long-@@	14
ption	14
entri@@	14
perform@@	14
kin	14
spea@@	14
kli@@	14
fig@@	14
jewel@@	14
rot@@	14
rand	14
adju@@	14
ne	14
py@@	14
rot	14
infla@@	14
ia	14
fal@@	14
lon	14
produ@@	14
lama	14
lied	14
an-@@	14
equip@@	14
bad@@	14
cated	14
kara@@	14
segway	14
alo@@	14
footballer	14
boul@@	14
custo@@	14
moti@@	14
anda	14
sandwi@@	14
$	14
wl	14
ima@@	14
mate	14
ab	14
ental	14
lap@@	14
colo@@	14
motive	14
rollerbla@@	14
diverse	14
photograph@@	14
store@@	14
gal@@	14
mol@@	14
lass@@	14
conven@@	14
bli@@	13
ussion	13
sper@@	13
vari@@	13
pump@@	13
brief@@	13
ever@@	13
bas@@	13
gn	13
ka	13
inclu@@	13
half@@	13
enjo@@	13
kul@@	13
ele	13
electri@@	13
linder	13
crou@@	13
qua@@	13
nament	13
walk@@	13
xing	13
geh@@	13
ammer	13
fran@@	13
odle	13
eri@@	13
decker	13
den	13
wrest@@	13
ind	13
escal@@	13
gen	13
skin@@	13
pict@@	13
gel@@	13
stle	12
aqu@@	12
stun@@	12
terri@@	12
class@@	12
mer	12
mark@@	12
ey@@	12
ale	12
dach@@	12
vacuum@@	12
cau@@	12
bus@@	12
goal@@	12
ling@@	12
lei@@	12
asi@@	12
trol@@	12
rig	12
bridesma@@	12
visi@@	12
enthusi@@	12
sprinkl@@	12
reg@@	12
bill@@	12
vin@@	12
eless	12
buff@@	12
thum@@	12
sten@@	12
sociali@@	12
lk@@	12
skinned	12
table@@	12
sax@@	12
stum@@	12
presen@@	12
windsurfer	12
loc@@	12
ot	12
rine	12
ara@@	12
basketball@@	12
cket@@	12
nel	12
pel	12
spre@@	12
wander@@	12
accompan@@	12
mly	12
%	12
ades	12
bou@@	12
span@@	12
gel	12
jum@@	12
vie	12
xen	12
tons	12
blon@@	11
rum@@	11
acti@@	11
cue	11
sym@@	11
reno@@	11
volks@@	11
fabri@@	11
long@@	11
ttery	11
toile@@	11
ack@@	11
vement	11
barbe@@	11
park@@	11
thi@@	11
lars	11
metal@@	11
surpri@@	11
eh@@	11
bal	11
brun@@	11
rif@@	11
enti@@	11
shop@@	11
festi@@	11
flyer	11
shock@@	11
eding	11
turn@@	11
vio@@	11
tha@@	11
xy@@	11
rying	11
vision	11
bm@@	11
hill@@	10
q@@	10
ller	10
aus@@	10
wagen	10
frisbe@@	10
pullover	10
tablet	10
non@@	10
rapi@@	10
sidel@@	10
rested	10
beauti@@	10
football@@	10
ssig@@	10
igh@@	10
vice	10
flan@@	10
hell	10
shir@@	10
race@@	10
pass@@	10
ried	10
notebooks	10
checker@@	10
spin@@	10
sine	10
stret@@	10
val@@	10
moun@@	10
neu@@	10
cham@@	10
fru@@	10
mex@@	10
trin@@	10
suspen@@	10
bies	10
olympi@@	10
ues	10
irts	10
gle@@	10
daugh@@	10
competiti@@	10
graffit@@	10
pic@@	9
amo@@	9
flip-flo@@	9
rac@@	9
camoufla@@	9
glit@@	9
paus@@	9
gras	9
train@@	9
lil@@	9
approa@@	9
oed	9
lie@@	9
partment	9
unter	9
convers@@	9
ben@@	9
accor@@	9
pede@@	9
haw@@	9
ba	9
bran@@	9
met	9
ural	9
ill	9
cigar@@	9
hurd@@	9
start@@	9
stand@@	9
outs	9
shift	9
deck@@	9
ette	9
pos@@	9
pony@@	9
fts@@	9
trash@@	9
ject	9
wil@@	9
pau@@	9
cand@@	9
bel	9
rout@@	9
fast@@	9
bers	9
garden@@	9
pull@@	8
jer@@	8
ein	8
ym@@	8
swin@@	8
seh@@	8
rece@@	8
tier@@	8
try@@	8
passage	8
auto	8
list@@	8
butter@@	8
note@@	8
cil	8
ciali@@	8
moder@@	8
eine@@	8
theat@@	8
todd@@	8
wel	8
known	8
pizz@@	8
tem	8
hug@@	8
ene	8
disco	8
police@@	8
gical	8
hn@@	8
stein	8
troph@@	8
elabo@@	8
tely	8
rate	8
brai@@	8
swee@@	8
wait@@	8
bene@@	8
elt	8
links	8
snea@@	8
togra@@	8
bandann@@	8
oce@@	8
shoo@@	8
unusu@@	8
box@@	8
ppel@@	8
geri@@	8
pho@@	8
gei@@	8
tand@@	8
harve@@	7
pizzeria	7
mmer@@	7
foli@@	7
bass@@	7
overall	7
blea@@	7
gender	7
plat@@	7
gest@@	7
aten	7
mau@@	7
&apos;@@	7
mock	7
mur@@	7
yar@@	7
lla@@	7
you@@	7
ctly	7
pian@@	7
ig	7
lamp@@	7
sof@@	7
paper@@	7
ument	7
fon@@	7
ouse	7
erie	7
mil@@	7
ssage	7
gur@@	7
seg@@	7
un	7
tree-@@	7
ffe	7
ffe@@	7
instrum@@	7
spring@@	7
scho@@	7
tory	7
ee	7
brand@@	7
kan@@	7
secon@@	7
sse@@	7
dig@@	7
inder@@	7
bst	7
chain@@	7
ffed	7
publi@@	7
ral@@	7
paci@@	7
..	7
ringed	7
mel	7
dame	7
dest	7
comi@@	7
hard@@	7
wol@@	7
versu@@	7
gie	7
repair@@	7
gall@@	7
ppen	7
gang	7
tooth@@	6
differ@@	6
q	6
strand	6
scen@@	6
color@@	6
ern	6
ern@@	6
iel@@	6
jo	6
chor	6
smar@@	6
bed@@	6
mart	6
web@@	6
stam@@	6
busine@@	6
alter@@	6
itten	6
tro	6
ow	6
shal@@	6
qual@@	6
secur@@	6
sian	6
sprint	6
tier	6
chur@@	6
row@@	6
gue	6
born	6
ricksha@@	6
invol@@	6
resi@@	6
patter@@	6
stap@@	6
trei@@	6
ein@@	6
leu@@	6
blond-@@	6
spider@@	6
as@@	6
dora	6
ann@@	6
tem@@	6
flag@@	6
modi@@	6
exten@@	6
geno@@	6
plan	6
tently	6
athle@@	6
religi@@	6
zu@@	6
stricken	6
disc@@	6
abo@@	6
ander@@	6
tender	6
ole	6
gras@@	6
spani@@	6
bare@@	6
pc	6
elegan@@	6
vit@@	6
wheelbar@@	5
des@@	5
ih@@	5
heavil@@	5
frei@@	5
libr@@	5
stur@@	5
parach@@	5
cht	5
wand@@	5
shin@@	5
ange	5
sci@@	5
ffing	5
transparent	5
offen@@	5
gth	5
tten@@	5
micro@@	5
guitar@@	5
cour@@	5
soc@@	5
git@@	5
alter	5
ban	5
fa	5
fore	5
ree	5
une	5
exer@@	5
mach@@	5
cobble@@	5
pig@@	5
gesti@@	5
slim	5
nd	5
deo	5
pating	5
milit@@	5
beh@@	5
clou@@	5
enter@@	5
orn@@	5
gun@@	5
kra@@	5
unge	5
donal@@	5
entran@@	5
mann@@	5
finder	5
tatto@@	5
with@@	5
most@@	5
ous@@	5
lared	5
ung@@	5
gum@@	5
quarter@@	5
photo@@	5
ig@@	5
contra@@	5
smartphone	5
bulldo@@	5
person@@	5
pools	5
lage	5
gar	5
ppen@@	5
ros@@	5
mitten	5
die@@	5
holi@@	5
locks	5
supp@@	5
kar@@	5
semi@@	4
za	4
erry-@@	4
alle@@	4
treadmi@@	4
dump@@	4
cker@@	4
varie@@	4
sku@@	4
y-haired	4
ctory	4
rucksack	4
stel@@	4
fest@@	4
oran@@	4
ata	4
inform@@	4
traditi@@	4
altar	4
weiser	4
numer@@	4
label@@	4
ax@@	4
ffer@@	4
bage	4
smal@@	4
soft@@	4
winter@@	4
anorak	4
two@@	4
skatepark	4
usu@@	4
jump@@	4
open@@	4
bert	4
tu	4
binocu@@	4
neigh@@	4
establi@@	4
send	4
det	4
cauca@@	4
sheph@@	4
adul@@	4
gas@@	4
au	4
gt	4
model@@	4
gaz@@	4
zer@@	4
casu@@	4
len	4
merchan@@	4
arre	4
fted	4
roll@@	4
rad	4
attemp@@	4
vis@@	4
pf	4
scal@@	4
leaders	4
sack@@	4
outf@@	4
ku@@	4
stem	4
hl	4
hawai@@	4
mmel	4
chel@@	4
scaffol@@	4
budd@@	4
oph@@	4
mechan@@	4
clar@@	4
sche@@	4
laugh@@	4
cell@@	4
beg@@	4
promenade	4
mc@@	4
drau@@	4
mmer	4
tol@@	4
ppies	4
sse	4
bedi@@	3
ben	3
latte	3
kro@@	3
kna@@	3
night@@	3
stir@@	3
u-@@	3
ctor@@	3
wen@@	3
golden@@	3
teen@@	3
ender	3
chts	3
team@@	3
stein@@	3
enders	3
sch@@	3
tropi@@	3
cke@@	3
@	3
botto@@	3
spr@@	3
susp@@	3
costum@@	3
christ@@	3
tig@@	3
sak@@	3
bask@@	3
smart@@	3
blur@@	3
accompani@@	3
enth@@	3
derly	3
breakdance	3
eg@@	3
arbe@@	3
umbrella@@	3
sex@@	3
lly@@	3
dread@@	3
braun	3
ation@@	3
mei@@	3
kite@@	3
ener	3
sen	3
del	3
raz@@	3
pie@@	3
dru@@	3
exhi@@	3
eria	3
them@@	3
dio	3
bati@@	3
schi@@	3
fie	3
pad@@	3
bub@@	3
shment	3
after@@	3
zu	3
jet@@	3
aders	3
scop@@	3
cott@@	3
industri@@	3
essen	3
clown@@	3
rum	3
feder@@	3
podi@@	3
jung@@	3
erer	3
diver@@	3
terra@@	3
-shirt	3
tux@@	3
kor@@	3
nad@@	3
sich@@	3
ssa@@	3
helm	3
gery	3
nic	3
midd@@	3
agi@@	3
famili@@	3
mast	3
orche@@	3
synchroni@@	3
spor@@	3
emplo@@	3
bmx@@	3
busch	3
einer	3
berg	3
gie@@	3
acker	3
tour@@	3
bike@@	3
europe@@	3
whit@@	3
lle	3
vors	3
teh@@	3
cl@@	3
reli@@	3
elle	2
wish	2
kio@@	2
entation	2
tax@@	2
kur@@	2
kha@@	2
sement	2
seil@@	2
neighbor@@	2
amu@@	2
gem@@	2
african-@@	2
party@@	2
quo@@	2
pag@@	2
shore@@	2
sque@@	2
w.	2
equi@@	2
entali@@	2
gurt	2
twork	2
bie@@	2
posit@@	2
ingredi@@	2
gat@@	2
ballons	2
dern	2
concre@@	2
commun@@	2
pong	2
gela@@	2
chine@@	2
boo	2
tradition@@	2
ribb@@	2
hospit@@	2
nack@@	2
erry	2
inju@@	2
herr	2
bikini@@	2
casin@@	2
dise	2
cafe@@	2
nch@@	2
hammer@@	2
vat@@	2
snack@@	2
go-round	2
sciss@@	2
aus	2
llen	2
jean@@	2
blonde	2
rama	2
restauran@@	2
baby@@	2
choco@@	2
boot@@	2
seine	2
stil@@	2
turquo@@	2
path@@	2
ppe	2
upper@@	2
gs@@	2
meh@@	2
stin	2
skat@@	2
transport@@	2
kasse	2
jerse@@	2
=	2
stures	2
dinosau@@	2
bor	2
footed	2
dose	2
gut	2
aquari@@	2
mple@@	2
labora@@	2
sei@@	2
grafitti	2
carni@@	2
bikin@@	2
,@@	2
shov@@	2
yho@@	2
progre@@	2
fern	2
chalk@@	2
spark	2
err@@	2
traf@@	2
forei@@	2
bedeck@@	2
chs	2
+	2
indu@@	2
ko	2
ems	2
dunk@@	2
zebra@@	2
regen@@	2
schie@@	2
follo@@	2
teller	2
ympi@@	2
regal	2
spit@@	2
oon	2
indian@@	2
shirt@@	2
ket	2
musi@@	2
fest	2
perfor@@	2
ween	2
piste	2
practi@@	2
deco@@	2
-of-@@	2
vege@@	2
wilder@@	2
usk	2
essen@@	2
demo	2
kay@@	2
uniform@@	1
compu@@	1
gold@@	1
hub@@	1
hot@@	1
mier@@	1
burg	1
auge	1
ley@@	1
hem@@	1
matte	1
board@@	1
birth@@	1
euro@@	1
whil@@	1
arme@@	1
ami	1
sie@@	1
elek@@	1
emon@@	1
autos	1
wareh@@	1
uft	1
ang	1
passen@@	1
graff@@	1
nch	1
photogra@@	1
berg@@	1
ly-haired	1
japan@@	1
sai@@	1
kinder@@	1
garten	1
standers	1
fris@@	1
eres	1
gend	1
selves	1
bam@@	1
orama	1
orange@@	1
briti@@	1
teil@@	1
nie@@	1
ess@@	1
esta@@	1
ambu@@	1
tel	1
bt	1
besu@@	1
panorama	1
glas@@	1
make@@	1
ite@@	1
cany@@	1
tig	1
flug@@	1
leh@@	1
commer@@	1
skate@@	1
sonn@@	1
j	1
individu@@	1
muse@@	1
touri@@	1
rie@@	1
envi@@	1
wu@@	1
theater@@	1
op-@@	1
towar@@	1
obje@@	1
jog@@	1
gency	1
univer@@	1
hall@@	1
well@@	1
eine	1
vier	1
stab	1
mt	1
stol@@	1
teria	1
bunge@@	1
bak@@	1
debr@@	1
bis	1
marathon@@	1
borne	1
basket@@	1
brett	1
polo@@	1
repa@@	1
zel@@	1
somb@@	1
beani@@	1
hre@@	1
climb@@	1
probe	1
labo@@	1
ods	1
grill@@	1
stell@@	1
stab@@	1
aren@@	1
eit	1
disk@@	1
pult	1
tram@@	1
halfpipe	1
ulp@@	1
quad@@	1
stad@@	1
inlin@@	1
nah	1
rot-@@	1
fac@@	1
performan@@	1
oba@@	1
lila@@	1
haus	1
theke	1
gren@@	1
stole	1
kof@@	1
promen@@	1
newspa@@	1
harmon@@	1
apro@@	1
dung	1
short-@@	1
schwin@@	1
kr@@	1
elect@@	1
strau@@	1
ord@@	1
bibli@@	1
contain@@	1
eller	1
stark	1
outdo@@	1
folie	1
trun@@	1
stange	1
machin@@	1
sten	1
karate@@	1
again@@	1
professi@@	1
turni@@	1
punk@@	1
trampol@@	1
carou@@	1
gru@@	1
genie@@	1
kal@@	1
tell@@	1
strand@@	1
nis	1
neh@@	1
sport-@@	1
fami@@	1
safe@@	1
kir@@	1
vor	1
scher	1
stau@@	1
baseball@@	1
rote	1
etw@@	1
waa@@	1
cken@@	1
ort	1
later@@	1
springer	1
schar@@	1
outh	1
canadi@@	1
caf@@	1
merry-@@	1
cht@@	1
ference	1
acou@@	1
imbi@@	1
balle@@	1
